{"vocab": {"<pad>": 0, "<bos>": 1, "<eos>": 2, "<unk>": 3, "<|system|>": 4, "<|user|>": 5, "<|assistant|>": 6, "<|code|>": 7, "<|security|>": 8, "\"": 9, "#": 10, "&": 11, "'": 12, "(": 13, ")": 14, "+": 15, ",": 16, "-": 17, ".": 18, "/": 19, "0": 20, "1": 21, "2": 22, "3": 23, "4": 24, "5": 25, "6": 26, "7": 27, "8": 28, "9": 29, ":": 30, ";": 31, "<": 32, "</w>": 33, "=": 34, ">": 35, "?": 36, "@": 37, "[": 38, "]": 39, "_": 40, "`": 41, "a": 42, "b": 43, "c": 44, "d": 45, "e": 46, "f": 47, "g": 48, "h": 49, "i": 50, "j": 51, "k": 52, "l": 53, "m": 54, "n": 55, "o": 56, "p": 57, "q": 58, "r": 59, "s": 60, "t": 61, "u": 62, "v": 63, "w": 64, "x": 65, "y": 66, "z": 67, "{": 68, "|": 69, "}": 70, "á": 71, "â": 72, "ã": 73, "ç": 74, "é": 75, "ê": 76, "í": 77, "ó": 78, "õ": 79, "ú": 80, "—": 81, "□": 82, "e</w>": 83, "s</w>": 84, "te": 85, "en": 86, "ra": 87, "on": 88, "o</w>": 89, "li": 90, "a</w>": 91, "em": 92, "ci": 93, "ad": 94, ":</w>": 95, "ri": 96, "se": 97, ".</w>": 98, ",</w>": 99, "re": 100, "st": 101, ")</w>": 102, "<|": 103, "|>": 104, "si": 105, "ti": 106, "an": 107, "or": 108, "in": 109, "as": 110, "os</w>": 111, "em</w>": 112, "om": 113, "al": 114, "it": 115, "de": 116, "con": 117, "ap": 118, "ar": 119, "sy": 120, "de</w>": 121, "ter": 122, "ura": 123, "er": 124, "te</w>": 125, "-</w>": 126, "com": 127, "va": 128, "es</w>": 129, "]</w>": 130, "ste": 131, "pa": 132, "tra": 133, "tr": 134, "oc": 135, "ser": 136, "un": 137, "cia": 138, "es": 139, "+</w>": 140, "di": 141, "ex": 142, "qu": 143, "sen": 144, "seni": 145, "senior": 146, "seg": 147, "tiv": 148, "pl": 149, "çã": 150, "lid": 151, "sist": 152, "para": 153, "on,</w>": 154, "ol": 155, "g</w>": 156, "se</w>": 157, "com</w>": 158, "t</w>": 159, "to</w>": 160, "of": 161, "stem": 162, "ve": 163, "cl": 164, "tivos</w>": 165, "ite": 166, "user": 167, "<|user": 168, "<|as": 169, "<|assist": 170, "<|assistan": 171, "<|assistant": 172, "y</w>": 173, "system": 174, "<|system": 175, "segura": 176, "senior</w>": 177, "seguran": 178, "seguranç": 179, "arqu": 180, "tura": 181, "tri": 182, "mé": 183, "métri": 184, "métric": 185, "pe": 186, "men": 187, "try</w>": 188, "ção</w>": 189, "s:</w>": 190, "arquite": 191, "he": 192, "adr": 193, "on</w>": 194, "nci": 195, "ven": 196, "it</w>": 197, "ões</w>": 198, "arquitetura": 199, "ro</w>": 200, "bi": 201, "eme": 202, "para</w>": 203, "at": 204, "áve": 205, "ados</w>": 206, "ro": 207, "espe": 208, "<|user|>[": 209, "def": 210, "lic": 211, "bo": 212, "é</w>": 213, "especia": 214, "especiali": 215, "aplic": 216, "aplicáve": 217, "<|system|>v": 218, "<|system|>voc": 219, "<|system|>você": 220, "<|system|>você</w>": 221, "syon,</w>": 222, "l</w>": 223, "map": 224, "ensi": 225, "ac": 226, "ade": 227, "pri": 228, "ente</w>": 229, "lin": 230, "esc": 231, "as</w>": 232, "po": 233, "mt": 234, "defensi": 235, "gra": 236, "for": 237, "mas": 238, "master": 239, "íci": 240, "vi": 241, "bilid": 242, "métricas</w>": 243, "bilidade": 244, "trade": 245, "trade-": 246, "trade-of": 247, "trade-off": 248, "pro": 249, "ul": 250, "comp": 251, "est": 252, "ment": 253, "k</w>": 254, "al</w>": 255, "ng</w>": 256, "je": 257, "ori": 258, "segurança</w>": 259, "ce</w>": 260, "su": 261, "valid": 262, "valida": 263, "teste": 264, "compli": 265, "complian": 266, "compliance</w>": 267, "ob": 268, "tion</w>": 269, "ker": 270, "cu": 271, "pu": 272, "contra": 273, "retry</w>": 274, "rea": 275, "dia": 276, "op": 277, "da": 278, "im": 279, "jete</w>": 280, "exa": 281, "escal": 282, "—</w>": 283, "|</w>": 284, "dig": 285, "sol": 286, "per": 287, "km": 288, "o.</w>": 289, "ing</w>": 290, "put</w>": 291, "cor": 292, "is</w>": 293, "eng": 294, "kms</w>": 295, "princi": 296, "princip": 297, "adr</w>": 298, "ução</w>": 299, "ata": 300, "tion,</w>": 301, "pre": 302, "rate</w>": 303, "ret": 304, "ado</w>": 305, "doc": 306, "docu": 307, "document": 308, "sec": 309, "secret": 310, "obser": 311, "ean": 312, "use</w>": 313, "ter</w>": 314, "expl": 315, "inte": 316, "gon": 317, "integra": 318, "cing</w>": 319, "open": 320, "3)</w>": 321, "1)</w>": 322, "2)</w>": 323, "4)</w>": 324, "ções</w>": 325, "5)</w>": 326, "plem": 327, "6)</w>": 328, "zado</w>": 329, "plemente</w>": 330, "via</w>": 331, "d/": 332, "có": 333, "códig": 334, "código</w>": 335, "hei": 336, "boun": 337, "cir": 338, "circu": 339, "brea": 340, "breaker": 341, "padr": 342, "arquitetura.</w>": 343, "secrets</w>": 344, "al/": 345, "input</w>": 346, "a:</w>": 347, "ct</w>": 348, "engen": 349, "engenhei": 350, "engenheiro</w>": 351, "especializado</w>": 352, "implemente</w>": 353, "circuit</w>": 354, "observa": 355, "ries</w>": 356, "se,</w>": 357, "head": 358, "principal</w>": 359, "segu": 360, "seguro</w>": 361, "projete</w>": 362, "solução</w>": 363, "para:</w>": 364, "<|assistant|>arquitetura": 365, "<|assistant|>arquitetura</w>": 366, "bounda": 367, "boundaries</w>": 368, "clar": 369, "claros</w>": 370, "(h": 371, "(hexa": 372, "(hexagon": 373, "(hexagonal/": 374, "(hexagonal/cl": 375, "(hexagonal/clean": 376, "(hexagonal/clean)</w>": 377, "idi": 378, "idiom": 379, "idioma</w>": 380, "conven": 381, "convenções</w>": 382, "ofi": 383, "oficia": 384, "oficiais</w>": 385, "linter</w>": 386, "estri": 387, "estrito</w>": 388, "observabilidade": 389, "observabilidade:</w>": 390, "red/": 391, "red/u": 392, "red/use,</w>": 393, "tracing</w>": 394, "opente": 395, "opentel": 396, "openteleme": 397, "opentelemetry</w>": 398, "segurança:</w>": 399, "validation,</w>": 400, "env": 401, "env/": 402, "env/kms</w>": 403, "testes:</w>": 404, "unit</w>": 405, "integration</w>": 406, "contract</w>": 407, "trade-offs</w>": 408, "documentados</w>": 409, "padrões</w>": 410, "aplicávei": 411, "aplicáveis:</w>": 412, "breaker,</w>": 413, "bul": 414, "bulk": 415, "bulkhead": 416, "bulkhead,</w>": 417, "jit": 418, "jitter": 419, "jitter.</w>": 420, "ênci": 421, "reme": 422, "remedia": 423, "mapp": 424, "mapping</w>": 425, "ona": 426, "ên": 427, "ência": 428, "va.</w>": 429, "<|user|>[senior": 430, "<|user|>[senior]</w>": 431, "<|user|>[master": 432, "<|user|>[master]</w>": 433, "tern": 434, "ca</w>": 435, "th": 436, "ne": 437, "we": 438, "sta</w>": 439, "ber": 440, "corre": 441, "posi": 442, "zados</w>": 443, "mento</w>": 444, "nun": 445, "nunca</w>": 446, "tec": 447, "onamento</w>": 448, "a.</w>": 449, "bac": 450, "pat": 451, "pattern": 452, "mo": 453, "va</w>": 454, "fal": 455, "d,</w>": 456, "oni": 457, "cy": 458, "que</w>": 459, "contr": 460, "control": 461, "ça</w>": 462, "run": 463, "detec": 464, "aplicável</w>": 465, "especialista</w>": 466, "lise</w>": 467, "métricas": 468, "mttr": 469, "false</w>": 470, "positiv": 471, "positive</w>": 472, "onde</w>": 473, "boo": 474, "book</w>": 475, "its</w>": 476, "remediaçã": 477, "cyber": 478, "cybersegurança</w>": 479, "defensiva.</w>": 480, "<|assistant|>an": 481, "<|assistant|>aná": 482, "<|assistant|>análise</w>": 483, "defensiva</w>": 484, "super": 485, "superf": 486, "superfíci": 487, "superfície</w>": 488, "ataque</w>": 489, "mape": 490, "mapead": 491, "mapeada</w>": 492, "controles</w>": 493, "preven": 494, "preventivos</w>": 495, "detectivos</w>": 496, "corretivos</w>": 497, "métricas:</w>": 498, "mtt": 499, "mttd,</w>": 500, "mttr,</w>": 501, "runbook</w>": 502, "escalonamento</w>": 503, "forne": 504, "forneça</w>": 505, "explo": 506, "exploits</w>": 507, "weap": 508, "weaponi": 509, "weaponizados</w>": 510, "foc": 511, "foco</w>": 512, "remediação.</w>": 513, "mi": 514, "stra": 515, "ência</w>": 516, "vari": 517, "au": 518, "lat": 519, "aud": 520, "audit": 521, "ru": 522, "gl": 523, "vs</w>": 524, "y.</w>": 525, "o:</w>": 526, "<|system|>sy": 527, "<|system|>syon</w>": 528, "et": 529, "cont": 530, "consist": 531, "auditori": 532, "consistência": 533, "auditoria</w>": 534, "st</w>": 535, "#1": 536, "yp": 537, "strate": 538, "strateg": 539, "varian": 540, "priori": 541, "rol": 542, "to:</w>": 543, "gh": 544, "sta": 545, "ch": 546, "lbac": 547, "ín": 548, "latência</w>": 549, "ze</w>": 550, "clu": 551, "lback</w>": 552, "consistência.</w>": 553, "contín": 554, "contínu": 555, "[varian": 556, "[variante</w>": 557, "inclu": 558, "inclua</w>": 559, "rollback</w>": 560, "strategy.</w>": 561, "[ex": 562, "[exer": 563, "[exerc": 564, "[exercíci": 565, "[exercício</w>": 566, "priorize</w>": 567, "testa": 568, "testabilidade": 569, "testabilidade.</w>": 570, "[master": 571, "[master</w>": 572, "trade-off</w>": 573, "[senior</w>": 574, "contínua.</w>": 575, "□</w>": 576, "id": 577, "o,</w>": 578, "re</w>": 579, "i</w>": 580, "api</w>": 581, "ngl": 582, "er</w>": 583, "ga": 584, "pattern</w>": 585, "am": 586, "ev": 587, "line</w>": 588, "ar</w>": 589, "hi": 590, "reg": 591, "ma</w>": 592, "fi": 593, "conte": 594, "contex": 595, "cas": 596, "[cas": 597, "[caso</w>": 598, "contexto:</w>": 599, "ambi": 600, "ambiente</w>": 601, "regul": 602, "regulad": 603, "regulado,</w>": 604, "alt": 605, "alta</w>": 606, "escala.</w>": 607, "2</w>": 608, "gs</w>": 609, "or</w>": 610, "py": 611, "pyth": 612, "rip": 613, "typ": 614, "lo": 615, "typesc": 616, "typescrip": 617, "s.</w>": 618, "end": 619, "-d": 620, "rust": 621, "typescript": 622, "n</w>": 623, "are</w>": 624, "y:</w>": 625, "mento": 626, "dos</w>": 627, "1]</w>": 628, "2]</w>": 629, "3]</w>": 630, "4]</w>": 631, "evit": 632, "al.</w>": 633, "desi": 634, "desig": 635, "design</w>": 636, "testes</w>": 637, "validação</w>": 638, "estru": 639, "estrutura": 640, "logs</w>": 641, "estruturados</w>": 642, "and": 643, "mon": 644, "so": 645, "python": 646, "ing": 647, "óri": 648, "tid": 649, "cr": 650, "plata": 651, "platafor": 652, "plataforma</w>": 653, "pi": 654, "por</w>": 655, "ação</w>": 656, "ach": 657, "fac": 658, "pipe": 659, "pipeline</w>": 660, "par": 661, "cp": 662, "ot": 663, "íve": 664, "solid": 665, "ja": 666, "cpp": 667, "kot": 668, "kotlin": 669, "solidit": 670, "ível</w>": 671, "tu": 672, "idem": 673, "idempo": 674, "sum": 675, "pon": 676, "arch": 677, "archite": 678, "architec": 679, "architectu": 680, "in</w>": 681, "rest</w>": 682, "ker</w>": 683, "rou": 684, "wor": 685, "back": 686, "cli": 687, "pool": 688, "pool</w>": 689, "-dri": 690, "-driven": 691, "consum": 692, "consumer": 693, "consi": 694, "consiste": 695, "consisten": 696, "ting</w>": 697, "re:</w>": 698, "strangl": 699, "strangler</w>": 700, "fig</w>": 701, "worker</w>": 702, "backpre": 703, "backpres": 704, "backpressu": 705, "idempot": 706, "ser</w>": 707, "emen": 708, "limi": 709, "limiting</w>": 710, "etl</w>": 711, "resi": 712, "resili": 713, "resiliente</w>": 714, "expon": 715, "exponen": 716, "exponenci": 717, "parser</w>": 718, "high": 719, "high-": 720, "high-th": 721, "high-throu": 722, "high-through": 723, "migra": 724, "migração</w>": 725, "monó": 726, "monóli": 727, "cach": 728, "cache</w>": 729, "l1": 730, "l1/": 731, "l1/l": 732, "l1/l2</w>": 733, "invalidação</w>": 734, "contrato</w>": 735, "consumer-driven": 736, "cli</w>": 737, "plu": 738, "plug": 739, "plugin</w>": 740, "cust": 741, ").</w>": 742, "us": 743, "?</w>": 744, "quand": 745, "quando</w>": 746, "usar</w>": 747, "<|user|>quando</w>": 748, "du": 749, "ção": 750, "produ": 751, "alg": 752, "algori": 753, "algorit": 754, "ing:</w>": 755, "sc": 756, "dep": 757, "5]</w>": 758, "mode": 759, "le": 760, "tion": 761, "pla": 762, "as.</w>": 763, "bl": 764, "sac": 765, "ema</w>": 766, "anti": 767, "comb": 768, "combin": 769, "combine</w>": 770, "desac": 771, "desaco": 772, "desacopla": 773, "ação": 774, "ction": 775, "probl": 776, "defin": 777, "inter": 778, "interfac": 779, "injete</w>": 780, "exem": 781, "exempl": 782, "exemplo</w>": 783, "as,</w>": 784, "explíci": 785, "explícit": 786, "anti-": 787, "anti-pattern": 788, "anti-pattern:</w>": 789, "exper": 790, "expert</w>": 791, "patterns.</w>": 792, "production": 793, "production-": 794, "production-gra": 795, "production-grade": 796, "production-grade.</w>": 797, "defina</w>": 798, "problema</w>": 799, "exato</w>": 800, "(vari": 801, "(variação": 802, "(variação/": 803, "(variação/algorit": 804, "(variação/algoritmo": 805, "(variação/algoritmo/": 806, "(variação/algoritmo/desacopla": 807, "(variação/algoritmo/desacoplamento": 808, "(variação/algoritmo/desacoplamento).</w>": 809, "depend": 810, "dependênci": 811, "dependências,</w>": 812, "evite</w>": 813, "singl": 814, "singlet": 815, "singleton</w>": 816, "glob": 817, "global.</w>": 818, "interfaces</w>": 819, "explícitas.</w>": 820, "moda": 821, "moda.</w>": 822, "cha": 823, "ss</w>": 824, "arquiteto</w>": 825, "ware</w>": 826, "sco</w>": 827, "vid": 828, "evid": 829, "co": 830, "ade</w>": 831, "te:</w>": 832, "r</w>": 833, "cryp": 834, "remediação</w>": 835, "tes</w>": 836, "mis": 837, "la": 838, "ag": 839, "#3]</w>": 840, "#4]</w>": 841, "#5]</w>": 842, "6]</w>": 843, "7]</w>": 844, "#8": 845, "#8]</w>": 846, "#9": 847, "#9]</w>": 848, "#10": 849, "#10]</w>": 850, "11]</w>": 851, "12]</w>": 852, "#13]</w>": 853, "#14]</w>": 854, "h</w>": 855, "ho": 856, "tor": 857, "tim": 858, "rom": 859, "time": 860, "int</w>": 861, "has": 862, "isol": 863, "point</w>": 864, "ement</w>": 865, "ioc": 866, "hash</w>": 867, "ense</w>": 868, "sis</w>": 869, "late": 870, "mem": 871, "relat": 872, "relatóri": 873, "relatório</w>": 874, "ências</w>": 875, "cade": 876, "cadei": 877, "cadeia</w>": 878, "custó": 879, "digit": 880, "digital</w>": 881, "imag": 882, "imagem</w>": 883, "forense</w>": 884, "so</w>": 885, "admis": 886, "gação</w>": 887, "timeline</w>": 888, "extra": 889, "ction</w>": 890, "forensi": 891, "forensic": 892, "forensics.</w>": 893, "<|user|>p": 894, "<|user|>pas": 895, "<|user|>passo</w>": 896, "inve": 897, "invest": 898, "investi": 899, "investigação</w>": 900, "endpoint</w>": 901, "comprom": 902, "comprome": 903, "comprometid": 904, "comprometido.</w>": 905, "<|assistant|>isol": 906, "<|assistant|>isole</w>": 907, "host</w>": 908, "disco</w>": 909, "memóri": 910, "memória</w>": 911, "evidências</w>": 912, "anal": 913, "analy": 914, "analysis</w>": 915, "ioc</w>": 916, "extraction</w>": 917, "latera": 918, "lateral</w>": 919, "mov": 920, "movement</w>": 921, "admiss": 922, "admissível</w>": 923, "custódia": 924, "custódia.</w>": 925, "wa": 926, "ad</w>": 927, "paga": 928, "arqui": 929, "arquiv": 930, "sistem": 931, "sistema</w>": 932, "iden": 933, "upl": 934, "uplo": 935, "upload</w>": 936, "ban": 937, "gate": 938, "gatewa": 939, "rot": 940, "enve": 941, "adas</w>": 942, "mar": 943, "mark": 944, "market": 945, "marketpl": 946, "marketplac": 947, "marketplace</w>": 948, "b2": 949, "b2b": 950, "identid": 951, "strea": 952, "stream": 953, "core</w>": 954, "bank": 955, "heal": 956, "health": 957, "healthc": 958, "healthcare</w>": 959, "fhi": 960, "fhir</w>": 961, "9</w>": 962, "t:</w>": 963, "architecture</w>": 964, "4</w>": 965, "idempotência</w>": 966, "python.</w>": 967, "idempotência": 968, "idempotência:</w>": 969, "python:</w>": 970, "rust.</w>": 971, "rust:</w>": 972, "go.</w>": 973, "go:</w>": 974, "typescript.</w>": 975, "typescript:</w>": 976, "java.</w>": 977, "java": 978, "java:</w>": 979, "cpp.</w>": 980, "cpp:</w>": 981, "kotlin.</w>": 982, "kotlin:</w>": 983, "solidity.</w>": 984, "solidity:</w>": 985, "exponencial</w>": 986, "exponencial": 987, "exponencial:</w>": 988, "high-throughput</w>": 989, "high-throughpu": 990, "high-throughput:</w>": 991, "monólito</w>": 992, "monólito:</w>": 993, "backpressure</w>": 994, "backpressure:</w>": 995, "consistente</w>": 996, "consistente:</w>": 997, "consumer-driven</w>": 998, "consumer-driven:</w>": 999, "architecture:</w>": 1000, "senior.</w>": 1001, "code</w>": 1002, "revi": 1003, "revie": 1004, "review": 1005, "os:</w>": 1006, "pagamento": 1007, "ável</w>": 1008, "pagamentos:</w>": 1009, "b2b:</w>": 1010, "identidade": 1011, "identidade:</w>": 1012, "arquivos:</w>": 1013, "streaming:</w>": 1014, "banking:</w>": 1015, "gateway:</w>": 1016, "ain": 1017, "contain": 1018, "container</w>": 1019, "c4</w>": 1020, "model</w>": 1021, "nível</w>": 1022, "ai": 1023, "fai": 1024, "fail": 1025, "failu": 1026, "res": 1027, "ns": 1028, "mit": 1029, "stri": 1030, "master:</w>": 1031, "requ": 1032, "up": 1033, "sp": 1034, "cwe": 1035, "ard": 1036, "rbac": 1037, "dade</w>": 1038, "leg": 1039, "ck</w>": 1040, "cwe-": 1041, "spe": 1042, "spec": 1043, "requi": 1044, "requisi": 1045, "requisit": 1046, "requisitos</w>": 1047, "nã": 1048, "-f": 1049, "o)</w>": 1050, "ati": 1051, "evitar</w>": 1052, "ont": 1053, "ee": 1054, "hard": 1055, "envel": 1056, "envelop": 1057, "envelope</w>": 1058, "encryp": 1059, "ku": 1060, "kuber": 1061, "kuberne": 1062, "kubernetes</w>": 1063, "chav": 1064, "threa": 1065, "threat</w>": 1066, "stride</w>": 1067, "siem</w>": 1068, "mitre</w>": 1069, "att": 1070, "att&": 1071, "att&ck</w>": 1072, "respo": 1073, "resposta</w>": 1074, "cid": 1075, "pci": 1076, "pci-d": 1077, "pci-dss</w>": 1078, "cde</w>": 1079, "sof": 1080, "soft": 1081, "software</w>": 1082, "principal.</w>": 1083, "<|assistant|>per": 1084, "<|assistant|>perspec": 1085, "<|assistant|>perspectiv": 1086, "<|assistant|>perspectiva</w>": 1087, "não": 1088, "não-f": 1089, "não-fun": 1090, "não-funci": 1091, "não-funciona": 1092, "não-funcionais</w>": 1093, "(lat": 1094, "(latência": 1095, "(latência,</w>": 1096, "consistência,</w>": 1097, "custo)</w>": 1098, "diagra": 1099, "diagrama</w>": 1100, "altern": 1101, "alternati": 1102, "alternativa": 1103, "alternativas</w>": 1104, "reje": 1105, "rejeit": 1106, "rejeitadas</w>": 1107, "evol": 1108, "evolução</w>": 1109, "incr": 1110, "incremen": 1111, "increment": 1112, "incremental</w>": 1113, "(evitar</w>": 1114, "big</w>": 1115, "upf": 1116, "upfr": 1117, "upfront": 1118, "upfront)</w>": 1119, "failure</w>": 1120, "modes</w>": 1121, "chaos</w>": 1122, "engin": 1123, "enginee": 1124, "engineeri": 1125, "engineering</w>": 1126, "rotação</w>": 1127, "chaves</w>": 1128, "encryption</w>": 1129, "asvs</w>": 1130, "harden": 1131, "hardening</w>": 1132, "rbac</w>": 1133, "lea": 1134, "least</w>": 1135, "privi": 1136, "privileg": 1137, "privilege</w>": 1138, "incid": 1139, "incidente</w>": 1140, "rans": 1141, "ransom": 1142, "ransomware</w>": 1143, "correl": 1144, "correlação</w>": 1145, "cwe-7": 1146, "cwe-79</w>": 1147, "xss</w>": 1148, "spa</w>": 1149, "confor": 1150, "conformi": 1151, "conformidade</w>": 1152, "escop": 1153, "escopo</w>": 1154, "ow": 1155, "ver": 1156, "ni": 1157, "st/": 1158, "compl": 1159, "crypt": 1160, "m/": 1161, "complex": 1162, "th</w>": 1163, "dul": 1164, "<|user|>c": 1165, "err": 1166, "#15]</w>": 1167, "reposi": 1168, "repositor": 1169, "()</w>": 1170, "x</w>": 1171, "fer": 1172, "ck": 1173, "list</w>": 1174, "s)</w>": 1175, "cí": 1176, "review</w>": 1177, "owas": 1178, "owasp": 1179, "documentação</w>": 1180, "heck": 1181, "hecklist</w>": 1182, "<|assistant|>□</w>": 1183, "refer": 1184, "risco</w>": 1185, "inje": 1186, "din": 1187, "ço</w>": 1188, "factor": 1189, "fu": 1190, "ful</w>": 1191, "auditor</w>": 1192, "audi": 1193, "audite:</w>": 1194, "<|assistant|>f": 1195, "<|assistant|>fin": 1196, "<|assistant|>findin": 1197, "<|assistant|>findings</w>": 1198, "priorizados</w>": 1199, "evidência</w>": 1200, "especí": 1201, "específi": 1202, "específica</w>": 1203, "esfor": 1204, "esforço</w>": 1205, "estim": 1206, "estimado</w>": 1207, "pó": 1208, "pós": 1209, "pós-": 1210, "pós-fi": 1211, "pós-fix</w>": 1212, "referência</w>": 1213, "owasp/": 1214, "owasp/ni": 1215, "owasp/nist/": 1216, "owasp/nist/c": 1217, "owasp/nist/cw": 1218, "owasp/nist/cwe</w>": 1219, "reviewer</w>": 1220, "<|user|>checklist</w>": 1221, "(inje": 1222, "(injec": 1223, "(injection,</w>": 1224, "secrets)</w>": 1225, "erros</w>": 1226, "trat": 1227, "tratados</w>": 1228, "concor": 1229, "concorr": 1230, "concorrência</w>": 1231, "segura</w>": 1232, "complexid": 1233, "complexidade</w>": 1234, "o()</w>": 1235, "ace": 1236, "aceit": 1237, "aceitável</w>": 1238, "mean": 1239, "meaning": 1240, "meaningful</w>": 1241, "estável</w>": 1242, "invarian": 1243, "invariantes</w>": 1244, "adap": 1245, "deco": 1246, "decora": 1247, "comm": 1248, "command": 1249, "mic": 1250, "micro": 1251, "servi": 1252, "o?</w>": 1253, "microservi": 1254, "ces</w>": 1255, "grap": 1256, "graph": 1257, "python?</w>": 1258, "python,</w>": 1259, "rust?</w>": 1260, "rust,</w>": 1261, "go?</w>": 1262, "go,</w>": 1263, "typescript?</w>": 1264, "typescript,</w>": 1265, "<|user|>microservi": 1266, "<|user|>microservices</w>": 1267, "modul": 1268, "modular</w>": 1269, "mono": 1270, "monoli": 1271, "monolith</w>": 1272, "ke": 1273, "ou": 1274, "d</w>": 1275, "non": 1276, "s,</w>": 1277, "nic": 1278, "únic": 1279, "key</w>": 1280, "como</w>": 1281, "mo</w>": 1282, "nonce</w>": 1283, "rota": 1284, "nk": 1285, "own</w>": 1286, "hs": 1287, "crypto": 1288, "cryptograph": 1289, "cryptography.</w>": 1290, "produção": 1291, "produção?</w>": 1292, "bib": 1293, "bibli": 1294, "biblio": 1295, "bibliotec": 1296, "bibliotecas</w>": 1297, "auditadas</w>": 1298, "(li": 1299, "(lib": 1300, "(libso": 1301, "(libsodi": 1302, "(libsodiu": 1303, "(libsodium/": 1304, "(libsodium/ti": 1305, "(libsodium/tink": 1306, "(libsodium/tink).</w>": 1307, "roll</w>": 1308, "you": 1309, "your</w>": 1310, "crypto.</w>": 1311, "rotation,</w>": 1312, "hsm/": 1313, "hsm/km": 1314, "hsm/kms,</w>": 1315, "único,</w>": 1316, "versi": 1317, "versionamento</w>": 1318, "algoritmo</w>": 1319, "envelo": 1320, "envelope": 1321, "envelope.</w>": 1322, "repository</w>": 1323, "<|assistant|>repositor": 1324, "<|assistant|>repository:</w>": 1325, "25": 1326, "tor</w>": 1327, "255": 1328, "2551": 1329, "factory</w>": 1330, "<|assistant|>factor": 1331, "<|assistant|>factory:</w>": 1332, "strategy</w>": 1333, "<|assistant|>strateg": 1334, "<|assistant|>strategy:</w>": 1335, "observ": 1336, "observer</w>": 1337, "<|assistant|>obser": 1338, "<|assistant|>observer": 1339, "<|assistant|>observer:</w>": 1340, "adapter</w>": 1341, "<|assistant|>adap": 1342, "<|assistant|>adapter": 1343, "<|assistant|>adapter:</w>": 1344, "decorator</w>": 1345, "<|assistant|>decora": 1346, "<|assistant|>decorator": 1347, "<|assistant|>decorator:</w>": 1348, "command</w>": 1349, "<|assistant|>command": 1350, "<|assistant|>command:</w>": 1351, "m</w>": 1352, "20": 1353, "5</w>": 1354, "pagament": 1355, "pagamentos</w>": 1356, "13": 1357, "b2b</w>": 1358, "identidade</w>": 1359, "arquivos</w>": 1360, "streaming</w>": 1361, "banking</w>": 1362, "gateway</w>": 1363, ";</w>": 1364, "ed": 1365, "state</w>": 1366, "aes": 1367, "aes-": 1368, "lim": 1369, "1</w>": 1370, "gc": 1371, "sa": 1372, "sion</w>": 1373, "aes-gc": 1374, "chach": 1375, "chacha": 1376, "chacha20": 1377, "ess</w>": 1378, "limit</w>": 1379, "dat": 1380, "chacha20-": 1381, "chacha20-p": 1382, "chacha20-pol": 1383, "chacha20-poly": 1384, "chacha20-poly13": 1385, "chacha20-poly130": 1386, "server": 1387, "/c": 1388, "scori": 1389, "da</w>": 1390, "col": 1391, "6</w>": 1392, "ql</w>": 1393, "less</w>": 1394, "mó": 1395, "módul": 1396, "<|user|>s": 1397, "data</w>": 1398, "ed2551": 1399, "9:</w>": 1400, "x2551": 1401, "argon": 1402, "argon2": 1403, "argon2id": 1404, "7</w>": 1405, "8</w>": 1406, "graphql</w>": 1407, "depth</w>": 1408, "complexit": 1409, "complexity</w>": 1410, "scoring</w>": 1411, "lam": 1412, "lamb": 1413, "lambda</w>": 1414, "serverless</w>": 1415, "cold</w>": 1416, "star": 1417, "start</w>": 1418, "iam": 1419, "iam</w>": 1420, "over": 1421, "overper": 1422, "overpermis": 1423, "overpermission</w>": 1424, "terra": 1425, "terrafor": 1426, "terraform</w>": 1427, "módulo</w>": 1428, "rem": 1429, "remo": 1430, "remoto</w>": 1431, "loc": 1432, "lock": 1433, "locking</w>": 1434, "ci/c": 1435, "ci/cd</w>": 1436, "sast/": 1437, "sast/da": 1438, "sast/dast/": 1439, "sast/dast/s": 1440, "sast/dast/sca</w>": 1441, "integrados</w>": 1442, "mes": 1443, "python</w>": 1444, "=</w>": 1445, "ur": 1446, "polic": 1447, "even": 1448, "bu": 1449, "parti": 1450, "rede</w>": 1451, "m:</w>": 1452, "<|user|>g": 1453, "policy</w>": 1454, "0</w>": 1455, "rust</w>": 1456, "<|user|>even": 1457, "<|user|>c4</w>": 1458, "ogra": 1459, "ografi": 1460, "ografia</w>": 1461, "ração</w>": 1462, "sour": 1463, "mesh</w>": 1464, "<|user|>cap": 1465, "<|user|>cap</w>": 1466, "aes-gcm</w>": 1467, "chacha20-poly1305": 1468, "<|assistant|>aes-gc": 1469, "<|assistant|>aes-gcm:</w>": 1470, "<|user|>git": 1471, "<|user|>gitop": 1472, "<|user|>gitops</w>": 1473, "arg": 1474, "argoc": 1475, "opa</w>": 1476, "12</w>": 1477, "sel": 1478, "self": 1479, "<|user|>sag": 1480, "<|user|>saga</w>": 1481, "core": 1482, "coreografia</w>": 1483, "orqu": 1484, "orquest": 1485, "orquestração</w>": 1486, "<|user|>event</w>": 1487, "sourcing</w>": 1488, "cq": 1489, "cqr": 1490, "cqrs</w>": 1491, "<|user|>data</w>": 1492, "lake": 1493, "lakeho": 1494, "lakehouse</w>": 1495, "dura": 1496, "duran": 1497, "durante</w>": 1498, "partition</w>": 1499, "chacha20-poly1305</w>": 1500, "<|assistant|>chacha20-poly1305": 1501, "<|assistant|>chacha20-poly1305:</w>": 1502, "ed25519</w>": 1503, "<|assistant|>ed2551": 1504, "<|assistant|>ed25519:</w>": 1505, "x25519</w>": 1506, "<|assistant|>x2551": 1507, "<|assistant|>x25519:</w>": 1508, "argon2id</w>": 1509, "<|assistant|>argon2id": 1510, "<|assistant|>argon2id:</w>": 1511, "<|user|>slo": 1512, "<|user|>slo/": 1513, "<|user|>slo/err": 1514, "<|user|>slo/error</w>": 1515, "bud": 1516, "budg": 1517, "budge": 1518, "budget</w>": 1519, "sre</w>": 1520, "argocd</w>": 1521, "3</w>": 1522, "10</w>": 1523, "11</w>": 1524, "13</w>": 1525, "14</w>": 1526, "15</w>": 1527, "16</w>": 1528, "17</w>": 1529, "18</w>": 1530, "19</w>": 1531, "20</w>": 1532, "go</w>": 1533, "typescript</w>": 1534, "java</w>": 1535, "cpp</w>": 1536, "kotlin</w>": 1537, "solidity</w>": 1538, "self.": 1539, "``": 1540, "sem</w>": 1541, "self._": 1542, "`</w>": 1543, "ce": 1544, "failure": 1545, "ten": 1546, "imp": 1547, "unt": 1548, "ut": 1549, "to": 1550, "from": 1551, "at</w>": 1552, "d(": 1553, "state": 1554, "idempoten": 1555, "fie": 1556, "o;</w>": 1557, "f</w>": 1558, "def</w>": 1559, "wh": 1560, "clo": 1561, "impor": 1562, "import</w>": 1563, "clas": 1564, "state.": 1565, "na": 1566, "sag": 1567, "trans": 1568, "ult": 1569, "pr": 1570, "></w>": 1571, "bilidade</w>": 1572, "amento</w>": 1573, "mount": 1574, ");</w>": 1575, "defa": 1576, "log</w>": 1577, "zação</w>": 1578, "exe": 1579, "gi": 1580, "load": 1581, "no</w>": 1582, "sh": 1583, "ess": 1584, "bal": 1585, "orte": 1586, "c</w>": 1587, "from</w>": 1588, "fiel": 1589, "cal": 1590, "close": 1591, "open</w>": 1592, "self._state</w>": 1593, "on_": 1594, "audit</w>": 1595, "out": 1596, "<|assistant|>1)</w>": 1597, "container": 1598, "ent": 1599, "hol": 1600, "deci": 1601, "the": 1602, "tic": 1603, "ou</w>": 1604, "cel": 1605, "key": 1606, "ps</w>": 1607, "pac": 1608, "ip": 1609, "senior:</w>": 1610, "of</w>": 1611, "s;</w>": 1612, "veri": 1613, "que": 1614, "dp": 1615, "post": 1616, "ls</w>": 1617, "ken": 1618, "ult</w>": 1619, "exp": 1620, "la</w>": 1621, "aut": 1622, "ado": 1623, "execu": 1624, "cep": 1625, "ão</w>": 1626, "ma": 1627, "liz": 1628, "ng": 1629, "er.</w>": 1630, "me": 1631, "```": 1632, "```python</w>": 1633, "amount": 1634, "):</w>": 1635, "(f": 1636, "wher": 1637, "where</w>": 1638, "```</w>": 1639, "flo": 1640, "float</w>": 1641, "own": 1642, "tion:</w>": 1643, "test": 1644, "ty": 1645, "sorte": 1646, "sorted(": 1647, "data": 1648, "dataclas": 1649, "enu": 1650, "calla": 1651, "callab": 1652, "callable": 1653, "'</w>": 1654, "hal": 1655, "half": 1656, "half_": 1657, "field(": 1658, "field(defa": 1659, "field(default": 1660, "field(default=": 1661, "init": 1662, "init=": 1663, "init=fal": 1664, "init=false": 1665, "init=false)</w>": 1666, "opened": 1667, "opened_": 1668, "(self": 1669, "],</w>": 1670, "fallbac": 1671, "fallback": 1672, "-></w>": 1673, "if</w>": 1674, "retur": 1675, "return</w>": 1676, "self._failure": 1677, "self._failures</w>": 1678, "::": 1679, "sín": 1680, "síncr": 1681, "síncron": 1682, "tem": 1683, "l,</w>": 1684, "car": 1685, "natura": 1686, "ações</w>": 1687, "es,</w>": 1688, "read": 1689, "outbo": 1690, "outbox</w>": 1691, "messag": 1692, "bro": 1693, "(k": 1694, "sch": 1695, "schema</w>": 1696, "íveis</w>": 1697, "context": 1698, "compon": 1699, "cion": 1700, "ent</w>": 1701, "dev": 1702, "decision</w>": 1703, "átic": 1704, "ha</w>": 1705, "consistência</w>": 1706, "disp": 1707, "disponi": 1708, "sand": 1709, "le</w>": 1710, "eventu": 1711, "eventual</w>": 1712, "dis": 1713, "le/": 1714, "único</w>": 1715, "ux</w>": 1716, "nam": 1717, "names": 1718, "cg": 1719, "cgrou": 1720, "cgroups</w>": 1721, "es:</w>": 1722, "isolamento</w>": 1723, "2:</w>": 1724, "time</w>": 1725, "ado.</w>": 1726, "prin": 1727, "princí": 1728, "princípi": 1729, "tru": 1730, "recon": 1731, "ud": 1732, "inf": 1733, "s/": 1734, "den": 1735, "policy": 1736, "resum": 1737, "resumo</w>": 1738, "verifi": 1739, "assum": 1740, "mf": 1741, "mfa</w>": 1742, "re.</w>": 1743, "spi": 1744, "fe": 1745, "abac": 1746, "entra": 1747, "test</w>": 1748, "apis</w>": 1749, "autom": 1750, "çõ": 1751, "cv": 1752, "cvss</w>": 1753, "cept</w>": 1754, "impac": 1755, "impacto</w>": 1756, "neg": 1757, "negó": 1758, "negóci": 1759, "iocs</w>": 1760, "nor": 1761, "hash": 1762, "ki": 1763, "ll</w>": 1764, "tt": 1765, "cwe-5": 1766, "cwe-50": 1767, "segura.</w>": 1768, "pick": 1769, "yam": 1770, "yaml": 1771, "yaml.": 1772, "load</w>": 1773, "size</w>": 1774, "p</w>": 1775, "a,</w>": 1776, "gin": 1777, "al,</w>": 1778, "wri": 1779, "write": 1780, "arma": 1781, "armaz": 1782, "armazen": 1783, "armazenamento</w>": 1784, "aces": 1785, "log": 1786, "integ": 1787, "tls</w>": 1788, "1.": 1789, "ização</w>": 1790, "proc": 1791, "process": 1792, "adore": 1793, "hand": 1794, "('": 1795, "transfer": 1796, "')</w>": 1797, "from_": 1798, "id,</w>": 1799, "to_": 1800, "db": 1801, "db.": 1802, "db.execu": 1803, "db.execute": 1804, "db.execute(f": 1805, "db.execute(f\"": 1806, "db.execute(f\"up": 1807, "db.execute(f\"upda": 1808, "db.execute(f\"update</w>": 1809, "acco": 1810, "account": 1811, "accounts</w>": 1812, "set</w>": 1813, "bal=": 1814, "bal=bal": 1815, "{amount": 1816, "{amount}": 1817, "{amount}</w>": 1818, "id=": 1819, "id={": 1820, "id}": 1821, "id}\"": 1822, "id}\")</w>": 1823, "íti": 1824, "ítico": 1825, "auth": 1826, "idempotency": 1827, "teri": 1828, "teriz": 1829, "auth</w>": 1830, "ware": 1831, "ware,</w>": 1832, "clien": 1833, "cliente": 1834, "scan": 1835, "limit": 1836, "bound": 1837, "token": 1838, "ses</w>": 1839, "p:</w>": 1840, "hy": 1841, "hypo": 1842, "hypothe": 1843, "hypothesis</w>": 1844, "<|assistant|>```python</w>": 1845, "given": 1846, "(st": 1847, "(st.": 1848, "()": 1849, "))</w>": 1850, "ort": 1851, "xs": 1852, "==</w>": 1853, "progra": 1854, "program": 1855, "enum</w>": 1856, "type": 1857, "typev": 1858, "class</w>": 1859, "closed</w>": 1860, "open'</w>": 1861, "half_open</w>": 1862, "failure_": 1863, "failure_th": 1864, "failure_thres": 1865, "failure_threshol": 1866, "failure_threshold": 1867, "failure_threshold:</w>": 1868, "reco": 1869, "recover": 1870, "recovery": 1871, "recovery_": 1872, "recovery_time": 1873, "recovery_timeou": 1874, "recovery_timeout:</w>": 1875, "0.": 1876, "0,</w>": 1877, "fn": 1878, "callable[": 1879, "callable[[": 1880, "callable[[],</w>": 1881, "time.": 1882, "time.mon": 1883, "time.monot": 1884, "time.monotoni": 1885, "time.monotonic": 1886, "time.monotonic()</w>": 1887, "self._opened_": 1888, "self._opened_at</w>": 1889, ">=</w>": 1890, "fallback()</w>": 1891, "result</w>": 1892, "self._on_": 1893, "suc": 1894, "succ": 1895, "success": 1896, "_on_": 1897, "(self)</w>": 1898, "none": 1899, "none:</w>": 1900, "ing.</w>": 1901, "can": 1902, "mp": 1903, "mpsc": 1904, "shut": 1905, "shutd": 1906, "::sy": 1907, "::syn": 1908, "gu": 1909, "d`</w>": 1910, "do</w>": 1911, "request": 1912, "_re": 1913, "_relate": 1914, "<|user|>event": 1915, "<|user|>event-driven": 1916, "<|user|>event-driven</w>": 1917, "síncrono?</w>": 1918, "<|assistant|>e": 1919, "<|assistant|>eda": 1920, "<|assistant|>eda:</w>": 1921, "desacoplamento</w>": 1922, "tempo": 1923, "tempora": 1924, "temporal,</w>": 1925, "pic": 1926, "picos</w>": 1927, "carga": 1928, "carga,</w>": 1929, "trai": 1930, "trail</w>": 1931, "natural,</w>": 1932, "sagas</w>": 1933, "transações</w>": 1934, "distri": 1935, "distribu": 1936, "distribuí": 1937, "distribuíd": 1938, "distribuídas.</w>": 1939, "rest": 1940, "rest:</w>": 1941, "cons": 1942, "consult": 1943, "consultas</w>": 1944, "síncronas</w>": 1945, "sim": 1946, "simpl": 1947, "simples,</w>": 1948, "bai": 1949, "baix": 1950, "baixa</w>": 1951, "read.</w>": 1952, "message</w>": 1953, "broker</w>": 1954, "(ka": 1955, "(kaf": 1956, "(kafk": 1957, "(kafka": 1958, "(kafka)</w>": 1959, "idempotent</w>": 1960, "consumers</w>": 1961, "regi": 1962, "regist": 1963, "registr": 1964, "registry</w>": 1965, "(a": 1966, "(av": 1967, "(avro": 1968, "(avro/": 1969, "(avro/pro": 1970, "(avro/prot": 1971, "(avro/protob": 1972, "(avro/protobu": 1973, "(avro/protobuf": 1974, "(avro/protobuf).</w>": 1975, "níveis</w>": 1976, "system</w>": 1977, "context;</w>": 1978, "container;</w>": 1979, "component": 1980, "component;</w>": 1981, "(op": 1982, "(opcion": 1983, "(opcional": 1984, "(opcional).</w>": 1985, "entreg": 1986, "entrega</w>": 1987, "context+": 1988, "context+container</w>": 1989, "stake": 1990, "stakehol": 1991, "stakeholde": 1992, "stakeholder": 1993, "stakeholders,</w>": 1994, "component</w>": 1995, "devs.</w>": 1996, "complemente</w>": 1997, "adrs</w>": 1998, "(architecture</w>": 1999, "recor": 2000, "record": 2001, "records": 2002, "records).</w>": 2003, "theor": 2004, "theorem</w>": 2005, "implic": 2006, "implicações</w>": 2007, "prátic": 2008, "práticas</w>": 2009, "arquitet": 2010, "arquiteto.</w>": 2011, "<|assistant|>parti": 2012, "<|assistant|>partição</w>": 2013, "força</w>": 2014, "escol": 2015, "escolha</w>": 2016, "cp</w>": 2017, "ap.</w>": 2018, "cp:</w>": 2019, "etc": 2020, "etcd,</w>": 2021, "zo": 2022, "zoo": 2023, "zook": 2024, "zookee": 2025, "zookeeper": 2026, "zookeeper</w>": 2027, "(consistência</w>": 2028, "disponibilidade": 2029, "disponibilidade).</w>": 2030, "ap:</w>": 2031, "cassand": 2032, "cassandra": 2033, "cassandra,</w>": 2034, "dy": 2035, "dyna": 2036, "dynamo": 2037, "dynamo-": 2038, "dynamo-st": 2039, "dynamo-sty": 2040, "dynamo-style</w>": 2041, "(disponi": 2042, "(disponibilidade</w>": 2043, "consistency": 2044, "consistency).</w>": 2045, "pacel": 2046, "pacelc": 2047, "pacelc:</w>": 2048, "mesmo</w>": 2049, "partition,</w>": 2050, "chacha20-poly1305?</w>": 2051, "hardware</w>": 2052, "aes-n": 2053, "aes-ni</w>": 2054, "dispon": 2055, "disponível</w>": 2056, "(inte": 2057, "(intel": 2058, "(intel/": 2059, "(intel/am": 2060, "(intel/amd</w>": 2061, "server).</w>": 2062, "chacha20:</w>": 2063, "mobi": 2064, "mobile/": 2065, "mobile/em": 2066, "mobile/emb": 2067, "mobile/embed": 2068, "mobile/embedde": 2069, "mobile/embedded</w>": 2070, "aes</w>": 2071, "accel": 2072, "accel.</w>": 2073, "ambo": 2074, "ambos:</w>": 2075, "mensag": 2076, "mensagem": 2077, "mensagem,</w>": 2078, "reuse</w>": 2079, "key+": 2080, "key+non": 2081, "key+nonce": 2082, "key+nonce.</w>": 2083, "rotation</w>": 2084, "encryption": 2085, "encryption.</w>": 2086, "<|user|>lin": 2087, "<|user|>linux</w>": 2088, "namespa": 2089, "namespaces</w>": 2090, "bas": 2091, "base</w>": 2092, "containers.</w>": 2093, "<|assistant|>names": 2094, "<|assistant|>namespac": 2095, "<|assistant|>namespaces:</w>": 2096, "pid,</w>": 2097, "net": 2098, "net,</w>": 2099, "mount,</w>": 2100, "uts,</w>": 2101, "ipc": 2102, "ipc,</w>": 2103, "user.</w>": 2104, "v2:</w>": 2105, "limite": 2106, "limites</w>": 2107, "cpu": 2108, "cpu/": 2109, "cpu/mem": 2110, "cpu/mem/": 2111, "cpu/mem/i": 2112, "cpu/mem/io.</w>": 2113, "runtime</w>": 2114, "(container": 2115, "(containerd": 2116, "(containerd)</w>": 2117, "compõ": 2118, "compõe</w>": 2119, "oci": 2120, "oci</w>": 2121, "spec</w>": 2122, "seccomp": 2123, "seccomp/": 2124, "seccomp/ap": 2125, "seccomp/appar": 2126, "seccomp/apparm": 2127, "seccomp/apparmor": 2128, "seccomp/apparmor.</w>": 2129, "não</w>": 2130, "vm</w>": 2131, "kerne": 2132, "kernel</w>": 2133, "compar": 2134, "comparti": 2135, "compartil": 2136, "compartilh": 2137, "compartilhado.</w>": 2138, "princípios</w>": 2139, "<|assistant|>g": 2140, "<|assistant|>git</w>": 2141, "source</w>": 2142, "truth": 2143, "truth;</w>": 2144, "argocd/": 2145, "argocd/f": 2146, "argocd/fl": 2147, "argocd/flux</w>": 2148, "reconci": 2149, "reconcili": 2150, "reconcilia</w>": 2151, "clus": 2152, "cluster": 2153, "cluster;</w>": 2154, "pr</w>": 2155, "mud": 2156, "mudan": 2157, "mudanç": 2158, "mudanças</w>": 2159, "infra": 2160, "infra;</w>": 2161, "dri": 2162, "drif": 2163, "drift</w>": 2164, "detection": 2165, "detection;</w>": 2166, "seal": 2167, "sealed": 2168, "sealed-": 2169, "sealed-secret": 2170, "sealed-secrets/": 2171, "sealed-secrets/ex": 2172, "sealed-secrets/extern": 2173, "sealed-secrets/external": 2174, "sealed-secrets/external-": 2175, "sealed-secrets/external-secrets</w>": 2176, "cre": 2177, "creden": 2178, "credencia": 2179, "credenciai": 2180, "credenciais;</w>": 2181, "policy-": 2182, "policy-as": 2183, "policy-as-": 2184, "policy-as-code</w>": 2185, "(ky": 2186, "(kyver": 2187, "(kyvern": 2188, "(kyverno": 2189, "(kyverno/": 2190, "(kyverno/o": 2191, "(kyverno/opa": 2192, "(kyverno/opa).</w>": 2193, "<|user|>resumo</w>": 2194, "zer": 2195, "zero</w>": 2196, "trust</w>": 2197, "(ni": 2198, "(nist</w>": 2199, "sp</w>": 2200, "80": 2201, "800": 2202, "800-": 2203, "800-20": 2204, "800-207": 2205, "800-207).</w>": 2206, "<|assistant|>princípi": 2207, "<|assistant|>princípios:</w>": 2208, "confie": 2209, "confie,</w>": 2210, "sem": 2211, "semp": 2212, "sempre</w>": 2213, "verifique": 2214, "verifique;</w>": 2215, "assume</w>": 2216, "bre": 2217, "breach": 2218, "breach;</w>": 2219, "(p": 2220, "(pdp": 2221, "(pdp)</w>": 2222, "enfor": 2223, "enforc": 2224, "enforcement</w>": 2225, "(pe": 2226, "(pep": 2227, "(pep);</w>": 2228, "micro-": 2229, "micro-seg": 2230, "micro-segment": 2231, "micro-segmentação": 2232, "micro-segmentação;</w>": 2233, "contínuo;</w>": 2234, "devi": 2235, "device</w>": 2236, "postu": 2237, "posture.</w>": 2238, "implem": 2239, "implement": 2240, "implementa": 2241, "implementaçã": 2242, "implementação:</w>": 2243, "service</w>": 2244, "mtls</w>": 2245, "spif": 2246, "spiffe": 2247, "spiffe/": 2248, "spiffe/spi": 2249, "spiffe/spire</w>": 2250, "abac.</w>": 2251, "<|user|>owasp": 2252, "<|user|>owasp</w>": 2253, "a0": 2254, "a01</w>": 2255, "broken": 2256, "broken</w>": 2257, "acc": 2258, "access</w>": 2259, "control</w>": 2260, "checklist</w>": 2261, "deny</w>": 2262, "by</w>": 2263, "default</w>": 2264, "rbac/": 2265, "rbac/abac": 2266, "rbac/abac</w>": 2267, "centra": 2268, "centrali": 2269, "centralizado</w>": 2270, "idor</w>": 2271, "todos</w>": 2272, "recu": 2273, "recur": 2274, "recurs": 2275, "recursos</w>": 2276, "jw": 2277, "jwt:</w>": 2278, "validar</w>": 2279, "aud/": 2280, "aud/i": 2281, "aud/is": 2282, "aud/iss/": 2283, "aud/iss/exp": 2284, "aud/iss/exp</w>": 2285, "bol": 2286, "bola": 2287, "bola/": 2288, "bola/b": 2289, "bola/bf": 2290, "bola/bfla</w>": 2291, "endpo": 2292, "endpoin": 2293, "endpoint": 2294, "endpoints</w>": 2295, "sens": 2296, "sensíveis</w>": 2297, "imut": 2298, "imutável</w>": 2299, "autori": 2300, "autorização</w>": 2301, "hori": 2302, "horiz": 2303, "horizont": 2304, "horizontal/": 2305, "horizontal/ver": 2306, "horizontal/vertic": 2307, "horizontal/vertical</w>": 2308, "automati": 2309, "automatiz": 2310, "automatizado": 2311, "automatizados.</w>": 2312, "<|user|>tem": 2313, "<|user|>templa": 2314, "<|user|>template</w>": 2315, "vul": 2316, "vulne": 2317, "vulnera": 2318, "vulnerabilidade</w>": 2319, "equ": 2320, "equip": 2321, "equipe</w>": 2322, "desen": 2323, "desenv": 2324, "desenvol": 2325, "desenvolvi": 2326, "desenvolviment": 2327, "desenvolvimento.</w>": 2328, "<|assistant|>se": 2329, "<|assistant|>seçõ": 2330, "<|assistant|>seções:</w>": 2331, "executiv": 2332, "executivo</w>": 2333, "cwe/c": 2334, "cwe/cv": 2335, "cwe/cve</w>": 2336, "3.": 2337, "3.1</w>": 2338, "vec": 2339, "vector</w>": 2340, "proof</w>": 2341, "concept</w>": 2342, "san": 2343, "sani": 2344, "saniti": 2345, "sanitizado</w>": 2346, "negócio</w>": 2347, "pra": 2348, "praz": 2349, "prazo</w>": 2350, "sla</w>": 2351, "severi": 2352, "severidade</w>": 2353, "regres": 2354, "regress": 2355, "regressão</w>": 2356, "referências</w>": 2357, "owasp.</w>": 2358, "<|user|>corre": 2359, "<|user|>correla": 2360, "<|user|>correlacion": 2361, "<|user|>correlacionar</w>": 2362, "met": 2363, "meto": 2364, "metod": 2365, "metodol": 2366, "metodolo": 2367, "metodologi": 2368, "metodologia.</w>": 2369, "norma": 2370, "normaliz": 2371, "normalizar</w>": 2372, "timest": 2373, "timestam": 2374, "timestamps</w>": 2375, "utc": 2376, "utc;</w>": 2377, "(ip": 2378, "(ip,</w>": 2379, "dom": 2380, "domain": 2381, "domain,</w>": 2382, "file</w>": 2383, "hash);</w>": 2384, "mapping": 2385, "mapping;</w>": 2386, "kill</w>": 2387, "chain</w>": 2388, "reconst": 2389, "reconstru": 2390, "reconstruction": 2391, "reconstruction;</w>": 2392, "scoring": 2393, "scoring;</w>": 2394, "containmen": 2395, "containment</w>": 2396, "play": 2397, "playbook</w>": 2398, "ttp": 2399, "ttp.</w>": 2400, "<|user|>an": 2401, "<|user|>ana": 2402, "<|user|>analise</w>": 2403, "cwe-502</w>": 2404, "propon": 2405, "proponha</w>": 2406, "<|assistant|>cwe-50": 2407, "<|assistant|>cwe-502:</w>": 2408, "dese": 2409, "deseri": 2410, "deseria": 2411, "deseriali": 2412, "deserialização</w>": 2413, "insegura.</w>": 2414, "alto</w>": 2415, "entrada</w>": 2416, "user-": 2417, "user-control": 2418, "user-controlle": 2419, "user-controlled": 2420, "user-controlled.</w>": 2421, "remediação:</w>": 2422, "js": 2423, "json": 2424, "json/": 2425, "json/messag": 2426, "json/message": 2427, "json/messagepa": 2428, "json/messagepack</w>": 2429, "validation</w>": 2430, "(py": 2431, "(pyd": 2432, "(pydanti": 2433, "(pydantic": 2434, "(pydantic)": 2435, "(pydantic),</w>": 2436, "pickle/": 2437, "pickle/yaml.": 2438, "pickle/yaml.load</w>": 2439, "safe": 2440, "safeload": 2441, "safeloader.</w>": 2442, "defense</w>": 2443, "depth": 2444, "depth:</w>": 2445, "waf</w>": 2446, "limits</w>": 2447, "allo": 2448, "allow": 2449, "allowlist</w>": 2450, "tipo": 2451, "tipos.</w>": 2452, "auditoria:</w>": 2453, "gre": 2454, "grep</w>": 2455, "`pick": 2456, "`pickle": 2457, "`pickle.": 2458, "`pickle.load": 2459, "`pickle.loads": 2460, "`pickle.loads|": 2461, "`pickle.loads|yaml.": 2462, "`pickle.loads|yaml.load": 2463, "`pickle.loads|yaml.load`</w>": 2464, "ci.</w>": 2465, "<|user|>cadeia</w>": 2466, "custódi": 2467, "custódia</w>": 2468, "foren": 2469, "forense": 2470, "forense.</w>": 2471, "<|assistant|>document": 2472, "<|assistant|>documentar": 2473, "<|assistant|>documentar:</w>": 2474, "quem</w>": 2475, "colet": 2476, "coletou": 2477, "coletou,</w>": 2478, "quando,</w>": 2479, "ferra": 2480, "ferrament": 2481, "ferramenta,</w>": 2482, "sha": 2483, "sha-": 2484, "sha-25": 2485, "sha-256</w>": 2486, "origin": 2487, "original,</w>": 2488, "write-": 2489, "write-bl": 2490, "write-bloc": 2491, "write-blocker": 2492, "write-blocker,</w>": 2493, "verific": 2494, "verificad": 2495, "verificada,</w>": 2496, "worm": 2497, "worm,</w>": 2498, "acesso</w>": 2499, "logado.</w>": 2500, "admissi": 2501, "admissibilidade</w>": 2502, "depen": 2503, "depende</w>": 2504, "integri": 2505, "integridade</w>": 2506, "compro": 2507, "comprov": 2508, "comprovad": 2509, "comprovada.</w>": 2510, "<|user|>gdp": 2511, "<|user|>gdpr</w>": 2512, "art": 2513, "art.</w>": 2514, "32</w>": 2515, "medi": 2516, "medid": 2517, "medidas</w>": 2518, "té": 2519, "téc": 2520, "técnic": 2521, "técnicas</w>": 2522, "saas.</w>": 2523, "<|assistant|>c": 2524, "<|assistant|>crip": 2525, "<|assistant|>cript": 2526, "<|assistant|>criptografia</w>": 2527, "trâ": 2528, "trân": 2529, "trânsi": 2530, "trânsito</w>": 2531, "(tls</w>": 2532, "1.3)</w>": 2533, "repo": 2534, "repous": 2535, "repouso</w>": 2536, "(aes-": 2537, "(aes-25": 2538, "(aes-256": 2539, "(aes-256-": 2540, "(aes-256-gc": 2541, "(aes-256-gcm": 2542, "(aes-256-gcm);</w>": 2543, "pse": 2544, "pseud": 2545, "pseudon": 2546, "pseudonim": 2547, "pseudonimização</w>": 2548, "pii": 2549, "pii;</w>": 2550, "rbac;</w>": 2551, "logg": 2552, "logging</w>": 2553, "acesso": 2554, "acesso;</w>": 2555, "dpi": 2556, "dpia</w>": 2557, "documentad": 2558, "documentada": 2559, "documentada;</w>": 2560, "righ": 2561, "right</w>": 2562, "era": 2563, "erasu": 2564, "erasure</w>": 2565, "casc": 2566, "cascade</w>": 2567, "dele": 2568, "delete</w>": 2569, "backup": 2570, "backup</w>": 2571, "policy;</w>": 2572, "dpa</w>": 2573, "sub": 2574, "subprocess": 2575, "subprocessadore": 2576, "subprocessadores.</w>": 2577, "<|user|>code</w>": 2578, "identi": 2579, "identifi": 2580, "identifique</w>": 2581, "problem": 2582, "problemas</w>": 2583, "nest": 2584, "neste</w>": 2585, "handl": 2586, "handler.</w>": 2587, "@ap": 2588, "@app": 2589, "@app.": 2590, "@app.post": 2591, "@app.post('": 2592, "@app.post('/": 2593, "@app.post('/transfer": 2594, "@app.post('/transfer')</w>": 2595, "transfer(": 2596, "transfer(from_": 2597, "transfer(from_id,</w>": 2598, "to_id,</w>": 2599, "amount):</w>": 2600, "bal=bal-": 2601, "bal=bal-{amount}</w>": 2602, "id={from_": 2603, "id={from_id}\")</w>": 2604, "bal=bal+": 2605, "bal=bal+{amount}</w>": 2606, "id={to_": 2607, "id={to_id}\")</w>": 2608, "<|assistant|>cr": 2609, "<|assistant|>crítico": 2610, "<|assistant|>críticos:</w>": 2611, "sql</w>": 2612, "injection</w>": 2613, "(f-": 2614, "(f-stri": 2615, "(f-string": 2616, "(f-string);</w>": 2617, "transação</w>": 2618, "acid": 2619, "acid;</w>": 2620, "sal": 2621, "sald": 2622, "saldo;</w>": 2623, "authn": 2624, "authn/": 2625, "authn/auth": 2626, "authn/authz": 2627, "authn/authz;</w>": 2628, "idempotency;</w>": 2629, "dinhei": 2630, "dinheiro": 2631, "dinheiro.</w>": 2632, "fix": 2633, "fix:</w>": 2634, "parame": 2635, "parameteriz": 2636, "parameterize": 2637, "parameterized</w>": 2638, "queri": 2639, "queries,</w>": 2640, "`b": 2641, "`be": 2642, "`begin": 2643, "`begin/": 2644, "`begin/com": 2645, "`begin/commit": 2646, "`begin/commit`": 2647, "`begin/commit`,</w>": 2648, "decim": 2649, "decimal,</w>": 2650, "mid": 2651, "midd": 2652, "middle": 2653, "middleware,</w>": 2654, "idempotenc": 2655, "idempotency</w>": 2656, "key.</w>": 2657, "<|user|>post": 2658, "<|user|>post-": 2659, "<|user|>post-m": 2660, "<|user|>post-morte": 2661, "<|user|>post-mortem:</w>": 2662, "outag": 2663, "outage</w>": 2664, "4h</w>": 2665, "estrutura.</w>": 2666, "<|assistant|>timeline</w>": 2667, "utc</w>": 2668, "(s": 2669, "(sla": 2670, "(sla,</w>": 2671, "clientes)</w>": 2672, "roo": 2673, "root</w>": 2674, "ca": 2675, "cause</w>": 2676, "(5</w>": 2677, "why": 2678, "whys)</w>": 2679, "contri": 2680, "contribu": 2681, "contributing</w>": 2682, "factors</w>": 2683, "what</w>": 2684, "went</w>": 2685, "well</w>": 2686, "action</w>": 2687, "item": 2688, "items</w>": 2689, "(own": 2690, "(owner": 2691, "(owner,</w>": 2692, "due": 2693, "due)</w>": 2694, "blam": 2695, "blame": 2696, "blameless</w>": 2697, "cul": 2698, "cultu": 2699, "culture</w>": 2700, "mttr/": 2701, "mttr/mt": 2702, "mttr/mtb": 2703, "mttr/mtbf</w>": 2704, "atu": 2705, "atua": 2706, "atualiz": 2707, "atualizad": 2708, "atualizadas.</w>": 2709, "<|user|>threat</w>": 2710, "modelin": 2711, "modeling</w>": 2712, "arquivo": 2713, "arquivos.</w>": 2714, "<|assistant|>s": 2715, "<|assistant|>spo": 2716, "<|assistant|>spoof": 2717, "<|assistant|>spoofing:</w>": 2718, "forte</w>": 2719, "tam": 2720, "tampe": 2721, "tamperi": 2722, "tampering": 2723, "tampering:</w>": 2724, "assi": 2725, "assinatura": 2726, "assinatura</w>": 2727, "hm": 2728, "hmac": 2729, "hmac</w>": 2730, "arquivo</w>": 2731, "repu": 2732, "repudia": 2733, "repudiation:</w>": 2734, "info</w>": 2735, "disclo": 2736, "disclosu": 2737, "disclosure:</w>": 2738, "scan</w>": 2739, "mal": 2740, "malware,</w>": 2741, "dir</w>": 2742, "dos:</w>": 2743, "limit,</w>": 2744, "ele": 2745, "eleva": 2746, "elevation:</w>": 2747, "sandbo": 2748, "sandbox": 2749, "sandbox,</w>": 2750, "exec</w>": 2751, "host": 2752, "host.</w>": 2753, "<|user|>auditoria</w>": 2754, "microserviço</w>": 2755, "cart": 2756, "cartão</w>": 2757, "esco": 2758, "escopo": 2759, "escopo.</w>": 2760, "<|assistant|>cde</w>": 2761, "boundar": 2762, "boundary</w>": 2763, "defini": 2764, "definition</w>": 2765, "tokenização</w>": 2766, "pan": 2767, "pan</w>": 2768, "1.2": 2769, "1.2+</w>": 2770, "ever": 2771, "every": 2772, "everywhere</w>": 2773, "segre": 2774, "segregação</w>": 2775, "asv": 2776, "asv</w>": 2777, "scans</w>": 2778, "reten": 2779, "retention</w>": 2780, "meses</w>": 2781, "adm": 2782, "admin</w>": 2783, "man": 2784, "manag": 2785, "management</w>": 2786, "hsm": 2787, "hsm.</w>": 2788, "<|user|>solid": 2789, "<|user|>solid</w>": 2790, "legado</w>": 2791, "come": 2792, "começ": 2793, "começar": 2794, "começar?</w>": 2795, "chara": 2796, "charac": 2797, "characteriz": 2798, "characteriza": 2799, "characterization</w>": 2800, "tests;</w>": 2801, "extract</w>": 2802, "interface</w>": 2803, "ponto</w>": 2804, "exte": 2805, "extens": 2806, "extensã": 2807, "extensão;</w>": 2808, "sr": 2809, "srp:</w>": 2810, "separa": 2811, "separar</w>": 2812, "i/": 2813, "i/o</w>": 2814, "regra": 2815, "regra</w>": 2816, "negócio;</w>": 2817, "dip:</w>": 2818, "ab": 2819, "abstra": 2820, "abstrações</w>": 2821, "nos</w>": 2822, "hot</w>": 2823, "path": 2824, "paths;</w>": 2825, "módulos</w>": 2826, "monol": 2827, "monolítico": 2828, "monolíticos.</w>": 2829, "big": 2830, "big-": 2831, "big-ban": 2832, "big-bang</w>": 2833, "rewrite": 2834, "rewrite.</w>": 2835, "<|user|>pro": 2836, "<|user|>proper": 2837, "<|user|>property": 2838, "<|user|>property-": 2839, "<|user|>property-b": 2840, "<|user|>property-ba": 2841, "<|user|>property-base": 2842, "<|user|>property-based</w>": 2843, "testing</w>": 2844, "given,</w>": 2845, "strategi": 2846, "strategies</w>": 2847, "@given": 2848, "@given(st.": 2849, "@given(st.li": 2850, "@given(st.list": 2851, "@given(st.lists": 2852, "@given(st.lists(st.": 2853, "@given(st.lists(st.integ": 2854, "@given(st.lists(st.integer": 2855, "@given(st.lists(st.integers": 2856, "@given(st.lists(st.integers()": 2857, "@given(st.lists(st.integers()))</w>": 2858, "test_": 2859, "test_s": 2860, "test_sort": 2861, "test_sort_": 2862, "test_sort_idempoten": 2863, "test_sort_idempotent": 2864, "test_sort_idempotent(": 2865, "test_sort_idempotent(xs": 2866, "test_sort_idempotent(xs):</w>": 2867, "asser": 2868, "assert</w>": 2869, "sorted(sorted(": 2870, "sorted(sorted(xs": 2871, "sorted(sorted(xs))</w>": 2872, "sorted(x": 2873, "sorted(xs)</w>": 2874, "shri": 2875, "shrink": 2876, "shrinking</w>": 2877, "automátic": 2878, "automático.</w>": 2879, "`assum": 2880, "`assume": 2881, "`assume()": 2882, "`assume()`</w>": 2883, "pré": 2884, "pré-": 2885, "pré-con": 2886, "pré-condi": 2887, "pré-condiçõ": 2888, "pré-condições": 2889, "pré-condições.</w>": 2890, "programação</w>": 2891, "<|user|>implemente</w>": 2892, "breaker</w>": 2893, "micros": 2894, "microsservi": 2895, "microsserviç": 2896, "microsserviços</w>": 2897, "fallback</w>": 2898, "métricas.</w>": 2899, "dataclasses</w>": 2900, "dataclass,</w>": 2901, "field</w>": 2902, "typing</w>": 2903, "callable,</w>": 2904, "typevar</w>": 2905, "typevar": 2906, "typevar('": 2907, "typevar('t": 2908, "typevar('t')</w>": 2909, "state(": 2910, "state(enu": 2911, "state(enum": 2912, "state(enum):</w>": 2913, "'close": 2914, "'closed": 2915, "'closed'</w>": 2916, "'open'</w>": 2917, "'half_": 2918, "'half_open'</w>": 2919, "@dataclas": 2920, "@dataclass</w>": 2921, "circuit": 2922, "circuitbreaker": 2923, "circuitbreaker:</w>": 2924, "30.": 2925, "30.0</w>": 2926, "_failure": 2927, "_failures:</w>": 2928, "field(default=0,</w>": 2929, "_sta": 2930, "_state:</w>": 2931, "field(default=state.": 2932, "field(default=state.close": 2933, "field(default=state.closed,</w>": 2934, "_opened_": 2935, "_opened_at": 2936, "_opened_at:</w>": 2937, "field(default=0.": 2938, "field(default=0.0,</w>": 2939, "call": 2940, "call(self": 2941, "call(self,</w>": 2942, "fn:</w>": 2943, "t],</w>": 2944, "fallback:</w>": 2945, "t]": 2946, "t])</w>": 2947, "state.open": 2948, "state.open:</w>": 2949, "self.recovery_timeout:</w>": 2950, "state.half_open</w>": 2951, "el": 2952, "else": 2953, "else:</w>": 2954, "try:</w>": 2955, "fn()</w>": 2956, "self._on_success": 2957, "self._on_success()</w>": 2958, "except</w>": 2959, "excep": 2960, "exception:</w>": 2961, "self._on_failure": 2962, "self._on_failure()</w>": 2963, "_on_success": 2964, "_on_success(self)</w>": 2965, "state.closed</w>": 2966, "_on_failure": 2967, "_on_failure(self)</w>": 2968, "+=</w>": 2969, "self.failure_threshold:</w>": 2970, "state.open</w>": 2971, "padrã": 2972, "padrão:</w>": 2973, "fail-f": 2974, "fail-fa": 2975, "fail-fast": 2976, "fail-fast,</w>": 2977, "falh": 2978, "falhas,</w>": 2979, "observabilidade</w>": 2980, "contadore": 2981, "contadores</w>": 2982, "export": 2983, "exportáve": 2984, "exportávei": 2985, "exportáveis.</w>": 2986, "systems</w>": 2987, "programm": 2988, "programming.</w>": 2989, "<|user|>worker</w>": 2990, "thread": 2991, "thread-": 2992, "thread-sa": 2993, "thread-saf": 2994, "thread-safe</w>": 2995, "canal</w>": 2996, "mpsc</w>": 2997, "grace": 2998, "graceful</w>": 2999, "shutdown": 3000, "shutdown.</w>": 3001, "<|assistant|>use</w>": 3002, "`st": 3003, "`std": 3004, "`std::syn": 3005, "`std::sync": 3006, "`std::sync::": 3007, "`std::sync::mpsc": 3008, "`std::sync::mpsc`</w>": 3009, "`j": 3010, "`jo": 3011, "`join": 3012, "`joinhand": 3013, "`joinhandle": 3014, "`joinhandle`": 3015, "`joinhandle`.</w>": 3016, "propa": 3017, "propagu": 3018, "propague</w>": 3019, "`can": 3020, "`cancel": 3021, "`cancella": 3022, "`cancellation": 3023, "`cancellationtoken": 3024, "`cancellationtoken`</w>": 3025, "(to": 3026, "(toki": 3027, "(tokio": 3028, "(tokio::syn": 3029, "(tokio::sync</w>": 3030, "atom": 3031, "atomi": 3032, "atomic</w>": 3033, "bool": 3034, "bool).</w>": 3035, "ig": 3036, "ignor": 3037, "ignore</w>": 3038, "`sen": 3039, "`send`</w>": 3040, "bounds.</w>": 3041, "limite</w>": 3042, "fila</w>": 3043, "backpressure.</w>": 3044, "padrão</w>": 3045, "rai": 3046, "raii</w>": 3047, "guard": 3048, "guard</w>": 3049, "sina": 3050, "sinaliz": 3051, "sinaliza</w>": 3052, "shutdown</w>": 3053, "dro": 3054, "drop</w>": 3055, "owner.</w>": 3056, "<|user|>exp": 3057, "<|user|>expli": 3058, "<|user|>explique</w>": 3059, "pagamentos.</w>": 3060, "<|assistant|>head": 3061, "<|assistant|>header</w>": 3062, "`idempotency": 3063, "`idempotency-": 3064, "`idempotency-key": 3065, "`idempotency-key`</w>": 3066, "ope": 3067, "operação</w>": 3068, "ló": 3069, "lógi": 3070, "lógic": 3071, "lógica.</w>": 3072, "servid": 3073, "servidor</w>": 3074, "persist": 3075, "persiste</w>": 3076, "(key": 3077, "(key,</w>": 3078, "request_": 3079, "request_hash": 3080, "request_hash,</w>": 3081, "respon": 3082, "response,</w>": 3083, "stat": 3084, "status": 3085, "status)</w>": 3086, "ttl": 3087, "ttl.</w>": 3088, "repla": 3089, "replay</w>": 3090, "retor": 3091, "retorn": 3092, "retorna</w>": 3093, "mesma</w>": 3094, "reprocess": 3095, "reprocessar": 3096, "reprocessar.</w>": 3097, "chave</w>": 3098, "deve</w>": 3099, "uu": 3100, "uuid": 3101, "uuid</w>": 3102, "v4</w>": 3103, "cliente.</w>": 3104, "gateway.</w>": 3105, "<|user|>como</w>": 3106, "n+": 3107, "n+1</w>": 3108, "queries</w>": 3109, "orm</w>": 3110, "sacri": 3111, "sacrifi": 3112, "sacrific": 3113, "sacrificar</w>": 3114, "legi": 3115, "legibilidade": 3116, "legibilidade?</w>": 3117, "<|assistant|>senior</w>": 3118, "appro": 3119, "approach": 3120, "approach:</w>": 3121, "`se": 3122, "`sele": 3123, "`selec": 3124, "`select": 3125, "`select_relate": 3126, "`select_related": 3127, "`select_related`": 3128, "`select_related`/": 3129, "`select_related`/`": 3130, "`select_related`/`pre": 3131, "`select_related`/`pref": 3132, "`select_related`/`prefet": 3133, "`select_related`/`prefetch": 3134, "`select_related`/`prefetch_relate": 3135, "`select_related`/`prefetch_related`</w>": 3136, "(d": 3137, "(dj": 3138, "(djan": 3139, "(djang": 3140, "(django)</w>": 3141, "eag": 3142, "eager</w>": 3143, "loading</w>": 3144, "explícito;</w>": 3145, "datal": 3146, "datalo": 3147, "dataload": 3148, "dataloader</w>": 3149, "graphq": 3150, "graphql": 3151, "graphql;</w>": 3152, "proje": 3153, "projeções</w>": 3154, "dto</w>": 3155, "vez": 3156, "vez</w>": 3157, "entid": 3158, "entidad": 3159, "entidades</w>": 3160, "complet": 3161, "completas": 3162, "completas;</w>": 3163, "quer": 3164, "query</w>": 3165, "coun": 3166, "count</w>": 3167, "request</w>": 3168, "stag": 3169, "staging.</w>": 3170, "laz": 3171, "lazy</w>": 3172, "loop": 3173, "loops.</w>": 3174}, "merges": [["e", "</w>"], ["s", "</w>"], ["t", "e"], ["e", "n"], ["r", "a"], ["o", "n"], ["o", "</w>"], ["l", "i"], ["a", "</w>"], ["e", "m"], ["c", "i"], ["a", "d"], [":", "</w>"], ["r", "i"], ["s", "e"], [".", "</w>"], [",", "</w>"], ["r", "e"], ["s", "t"], [")", "</w>"], ["<", "|"], ["|", ">"], ["s", "i"], ["t", "i"], ["a", "n"], ["o", "r"], ["i", "n"], ["a", "s"], ["o", "s</w>"], ["em", "</w>"], ["o", "m"], ["a", "l"], ["i", "t"], ["d", "e"], ["c", "on"], ["a", "p"], ["a", "r"], ["s", "y"], ["d", "e</w>"], ["te", "r"], ["u", "ra"], ["e", "r"], ["t", "e</w>"], ["-", "</w>"], ["c", "om"], ["v", "a"], ["e", "s</w>"], ["]", "</w>"], ["s", "te"], ["p", "a"], ["t", "ra"], ["t", "r"], ["o", "c"], ["se", "r"], ["u", "n"], ["ci", "a"], ["e", "s"], ["+", "</w>"], ["d", "i"], ["e", "x"], ["q", "u"], ["s", "en"], ["sen", "i"], ["seni", "or"], ["se", "g"], ["ti", "v"], ["p", "l"], ["ç", "ã"], ["li", "d"], ["si", "st"], ["pa", "ra"], ["on", ",</w>"], ["o", "l"], ["g", "</w>"], ["s", "e</w>"], ["com", "</w>"], ["t", "</w>"], ["t", "o</w>"], ["o", "f"], ["ste", "m"], ["v", "e"], ["c", "l"], ["tiv", "os</w>"], ["i", "te"], ["u", "ser"], ["<|", "user"], ["<|user", "|>"], ["<|", "as"], ["<|as", "sist"], ["<|assist", "an"], ["<|assistan", "t"], ["<|assistant", "|>"], ["y", "</w>"], ["sy", "stem"], ["<|", "system"], ["<|system", "|>"], ["seg", "ura"], ["senior", "</w>"], ["segura", "n"], ["seguran", "ç"], ["ar", "qu"], ["t", "ura"], ["t", "ri"], ["m", "é"], ["mé", "tri"], ["métri", "c"], ["p", "e"], ["m", "en"], ["tr", "y</w>"], ["çã", "o</w>"], ["s", ":</w>"], ["arqu", "ite"], ["h", "e"], ["ad", "r"], ["on", "</w>"], ["n", "ci"], ["v", "en"], ["it", "</w>"], ["õ", "es</w>"], ["arquite", "tura"], ["r", "o</w>"], ["b", "i"], ["em", "e"], ["para", "</w>"], ["a", "t"], ["á", "ve"], ["ad", "os</w>"], ["r", "o"], ["es", "pe"], ["<|user|>", "["], ["de", "f"], ["li", "c"], ["b", "o"], ["é", "</w>"], ["espe", "cia"], ["especia", "li"], ["ap", "lic"], ["aplic", "áve"], ["<|system|>", "v"], ["<|system|>v", "oc"], ["<|system|>voc", "ê"], ["<|system|>você", "</w>"], ["sy", "on,</w>"], ["l", "</w>"], ["m", "ap"], ["en", "si"], ["a", "c"], ["ad", "e"], ["p", "ri"], ["en", "te</w>"], ["li", "n"], ["es", "c"], ["a", "s</w>"], ["p", "o"], ["m", "t"], ["def", "ensi"], ["g", "ra"], ["f", "or"], ["m", "as"], ["mas", "ter"], ["í", "ci"], ["v", "i"], ["bi", "lid"], ["métric", "as</w>"], ["bilid", "ade"], ["tra", "de"], ["trade", "-"], ["trade-", "of"], ["trade-of", "f"], ["p", "ro"], ["u", "l"], ["com", "p"], ["e", "st"], ["men", "t"], ["k", "</w>"], ["al", "</w>"], ["n", "g</w>"], ["j", "e"], ["o", "ri"], ["seguranç", "a</w>"], ["c", "e</w>"], ["s", "u"], ["va", "lid"], ["valid", "a"], ["te", "ste"], ["comp", "li"], ["compli", "an"], ["complian", "ce</w>"], ["o", "b"], ["ti", "on</w>"], ["k", "er"], ["c", "u"], ["p", "u"], ["con", "tra"], ["re", "try</w>"], ["re", "a"], ["di", "a"], ["o", "p"], ["d", "a"], ["i", "m"], ["je", "te</w>"], ["ex", "a"], ["esc", "al"], ["—", "</w>"], ["|", "</w>"], ["di", "g"], ["s", "ol"], ["p", "er"], ["k", "m"], ["o", ".</w>"], ["in", "g</w>"], ["pu", "t</w>"], ["c", "or"], ["i", "s</w>"], ["en", "g"], ["km", "s</w>"], ["pri", "nci"], ["princi", "p"], ["adr", "</w>"], ["u", "ção</w>"], ["at", "a"], ["ti", "on,</w>"], ["p", "re"], ["ra", "te</w>"], ["re", "t"], ["ad", "o</w>"], ["d", "oc"], ["doc", "u"], ["docu", "ment"], ["se", "c"], ["sec", "ret"], ["ob", "ser"], ["e", "an"], ["u", "se</w>"], ["ter", "</w>"], ["ex", "pl"], ["in", "te"], ["g", "on"], ["inte", "gra"], ["ci", "ng</w>"], ["op", "en"], ["3", ")</w>"], ["1", ")</w>"], ["2", ")</w>"], ["4", ")</w>"], ["ç", "ões</w>"], ["5", ")</w>"], ["pl", "em"], ["6", ")</w>"], ["z", "ado</w>"], ["plem", "ente</w>"], ["vi", "a</w>"], ["d", "/"], ["c", "ó"], ["có", "dig"], ["códig", "o</w>"], ["he", "i"], ["bo", "un"], ["ci", "r"], ["cir", "cu"], ["b", "rea"], ["brea", "ker"], ["p", "adr"], ["arquitetura", ".</w>"], ["secret", "s</w>"], ["al", "/"], ["in", "put</w>"], ["a", ":</w>"], ["c", "t</w>"], ["eng", "en"], ["engen", "hei"], ["engenhei", "ro</w>"], ["especiali", "zado</w>"], ["im", "plemente</w>"], ["circu", "it</w>"], ["obser", "va"], ["ri", "es</w>"], ["se", ",</w>"], ["he", "ad"], ["princip", "al</w>"], ["seg", "u"], ["segu", "ro</w>"], ["pro", "jete</w>"], ["sol", "ução</w>"], ["para", ":</w>"], ["<|assistant|>", "arquitetura"], ["<|assistant|>arquitetura", "</w>"], ["boun", "da"], ["bounda", "ries</w>"], ["cl", "ar"], ["clar", "os</w>"], ["(", "h"], ["(h", "exa"], ["(hexa", "gon"], ["(hexagon", "al/"], ["(hexagonal/", "cl"], ["(hexagonal/cl", "ean"], ["(hexagonal/clean", ")</w>"], ["i", "di"], ["idi", "om"], ["idiom", "a</w>"], ["con", "ven"], ["conven", "ções</w>"], ["of", "i"], ["ofi", "cia"], ["oficia", "is</w>"], ["lin", "ter</w>"], ["est", "ri"], ["estri", "to</w>"], ["observa", "bilidade"], ["observabilidade", ":</w>"], ["re", "d/"], ["red/", "u"], ["red/u", "se,</w>"], ["tra", "cing</w>"], ["open", "te"], ["opente", "l"], ["opentel", "eme"], ["openteleme", "try</w>"], ["seguranç", "a:</w>"], ["valida", "tion,</w>"], ["en", "v"], ["env", "/"], ["env/", "kms</w>"], ["teste", "s:</w>"], ["un", "it</w>"], ["integra", "tion</w>"], ["contra", "ct</w>"], ["trade-off", "s</w>"], ["document", "ados</w>"], ["padr", "ões</w>"], ["aplicáve", "i"], ["aplicávei", "s:</w>"], ["breaker", ",</w>"], ["b", "ul"], ["bul", "k"], ["bulk", "head"], ["bulkhead", ",</w>"], ["j", "it"], ["jit", "ter"], ["jitter", ".</w>"], ["ê", "nci"], ["r", "eme"], ["reme", "dia"], ["map", "p"], ["mapp", "ing</w>"], ["on", "a"], ["ê", "n"], ["ên", "cia"], ["va", ".</w>"], ["<|user|>[", "senior"], ["<|user|>[senior", "]</w>"], ["<|user|>[", "master"], ["<|user|>[master", "]</w>"], ["ter", "n"], ["c", "a</w>"], ["t", "h"], ["n", "e"], ["w", "e"], ["st", "a</w>"], ["b", "er"], ["cor", "re"], ["po", "si"], ["z", "ados</w>"], ["men", "to</w>"], ["n", "un"], ["nun", "ca</w>"], ["te", "c"], ["ona", "mento</w>"], ["a", ".</w>"], ["b", "ac"], ["pa", "t"], ["pat", "tern"], ["m", "o"], ["v", "a</w>"], ["f", "al"], ["d", ",</w>"], ["on", "i"], ["c", "y"], ["qu", "e</w>"], ["con", "tr"], ["contr", "ol"], ["ç", "a</w>"], ["r", "un"], ["de", "tec"], ["aplicáve", "l</w>"], ["especiali", "sta</w>"], ["li", "se</w>"], ["métric", "as"], ["mt", "tr"], ["fal", "se</w>"], ["posi", "tiv"], ["positiv", "e</w>"], ["on", "de</w>"], ["bo", "o"], ["boo", "k</w>"], ["it", "s</w>"], ["remedia", "çã"], ["cy", "ber"], ["cyber", "segurança</w>"], ["defensi", "va.</w>"], ["<|assistant|>", "an"], ["<|assistant|>an", "á"], ["<|assistant|>aná", "lise</w>"], ["defensi", "va</w>"], ["su", "per"], ["super", "f"], ["superf", "íci"], ["superfíci", "e</w>"], ["ata", "que</w>"], ["map", "e"], ["mape", "ad"], ["mapead", "a</w>"], ["control", "es</w>"], ["pre", "ven"], ["preven", "tivos</w>"], ["detec", "tivos</w>"], ["corre", "tivos</w>"], ["métricas", ":</w>"], ["mt", "t"], ["mtt", "d,</w>"], ["mttr", ",</w>"], ["run", "book</w>"], ["escal", "onamento</w>"], ["for", "ne"], ["forne", "ça</w>"], ["expl", "o"], ["explo", "its</w>"], ["we", "ap"], ["weap", "oni"], ["weaponi", "zados</w>"], ["f", "oc"], ["foc", "o</w>"], ["remediaçã", "o.</w>"], ["m", "i"], ["st", "ra"], ["ênci", "a</w>"], ["va", "ri"], ["a", "u"], ["l", "at"], ["au", "d"], ["aud", "it"], ["r", "u"], ["g", "l"], ["v", "s</w>"], ["y", ".</w>"], ["o", ":</w>"], ["<|system|>", "sy"], ["<|system|>sy", "on</w>"], ["e", "t"], ["con", "t"], ["con", "sist"], ["audit", "ori"], ["consist", "ência"], ["auditori", "a</w>"], ["st", "</w>"], ["#", "1"], ["y", "p"], ["stra", "te"], ["strate", "g"], ["vari", "an"], ["pri", "ori"], ["r", "ol"], ["t", "o:</w>"], ["g", "h"], ["st", "a"], ["c", "h"], ["l", "bac"], ["í", "n"], ["lat", "ência</w>"], ["z", "e</w>"], ["cl", "u"], ["lbac", "k</w>"], ["consistência", ".</w>"], ["cont", "ín"], ["contín", "u"], ["[", "varian"], ["[varian", "te</w>"], ["in", "clu"], ["inclu", "a</w>"], ["rol", "lback</w>"], ["strateg", "y.</w>"], ["[", "ex"], ["[ex", "er"], ["[exer", "c"], ["[exerc", "íci"], ["[exercíci", "o</w>"], ["priori", "ze</w>"], ["te", "sta"], ["testa", "bilidade"], ["testabilidade", ".</w>"], ["[", "master"], ["[master", "</w>"], ["trade-off", "</w>"], ["[", "senior</w>"], ["contínu", "a.</w>"], ["□", "</w>"], ["i", "d"], ["o", ",</w>"], ["r", "e</w>"], ["i", "</w>"], ["ap", "i</w>"], ["n", "gl"], ["er", "</w>"], ["g", "a"], ["pattern", "</w>"], ["a", "m"], ["e", "v"], ["lin", "e</w>"], ["ar", "</w>"], ["h", "i"], ["re", "g"], ["m", "a</w>"], ["f", "i"], ["con", "te"], ["conte", "x"], ["c", "as"], ["[", "cas"], ["[cas", "o</w>"], ["contex", "to:</w>"], ["am", "bi"], ["ambi", "ente</w>"], ["reg", "ul"], ["regul", "ad"], ["regulad", "o,</w>"], ["al", "t"], ["alt", "a</w>"], ["escal", "a.</w>"], ["2", "</w>"], ["g", "s</w>"], ["or", "</w>"], ["p", "y"], ["py", "th"], ["ri", "p"], ["t", "yp"], ["l", "o"], ["typ", "esc"], ["typesc", "rip"], ["s", ".</w>"], ["en", "d"], ["-", "d"], ["ru", "st"], ["typescrip", "t"], ["n", "</w>"], ["ar", "e</w>"], ["y", ":</w>"], ["ment", "o"], ["d", "os</w>"], ["1", "]</w>"], ["2", "]</w>"], ["3", "]</w>"], ["4", "]</w>"], ["ev", "it"], ["al", ".</w>"], ["de", "si"], ["desi", "g"], ["desig", "n</w>"], ["teste", "s</w>"], ["valida", "ção</w>"], ["est", "ru"], ["estru", "tura"], ["lo", "gs</w>"], ["estrutura", "dos</w>"], ["an", "d"], ["m", "on"], ["s", "o"], ["pyth", "on"], ["in", "g"], ["ó", "ri"], ["ti", "d"], ["c", "r"], ["pl", "ata"], ["plata", "for"], ["platafor", "ma</w>"], ["p", "i"], ["p", "or</w>"], ["a", "ção</w>"], ["ac", "h"], ["f", "ac"], ["pi", "pe"], ["pipe", "line</w>"], ["p", "ar"], ["c", "p"], ["o", "t"], ["í", "ve"], ["so", "lid"], ["j", "a"], ["cp", "p"], ["k", "ot"], ["kot", "lin"], ["solid", "it"], ["íve", "l</w>"], ["t", "u"], ["id", "em"], ["idem", "po"], ["su", "m"], ["p", "on"], ["ar", "ch"], ["arch", "ite"], ["archite", "c"], ["architec", "tu"], ["in", "</w>"], ["re", "st</w>"], ["ker", "</w>"], ["ro", "u"], ["w", "or"], ["bac", "k"], ["c", "li"], ["po", "ol"], ["pool", "</w>"], ["-d", "ri"], ["-dri", "ven"], ["con", "sum"], ["consum", "er"], ["con", "si"], ["consi", "ste"], ["consiste", "n"], ["ti", "ng</w>"], ["re", ":</w>"], ["stra", "ngl"], ["strangl", "er</w>"], ["fi", "g</w>"], ["wor", "ker</w>"], ["back", "pre"], ["backpre", "s"], ["backpres", "su"], ["idempo", "t"], ["ser", "</w>"], ["em", "en"], ["li", "mi"], ["limi", "ting</w>"], ["et", "l</w>"], ["re", "si"], ["resi", "li"], ["resili", "ente</w>"], ["ex", "pon"], ["expon", "en"], ["exponen", "ci"], ["par", "ser</w>"], ["hi", "gh"], ["high", "-"], ["high-", "th"], ["high-th", "rou"], ["high-throu", "gh"], ["mi", "gra"], ["migra", "ção</w>"], ["mon", "ó"], ["monó", "li"], ["c", "ach"], ["cach", "e</w>"], ["l", "1"], ["l1", "/"], ["l1/", "l"], ["l1/l", "2</w>"], ["in", "validação</w>"], ["contra", "to</w>"], ["consumer", "-driven"], ["cli", "</w>"], ["pl", "u"], ["plu", "g"], ["plug", "in</w>"], ["cu", "st"], [")", ".</w>"], ["u", "s"], ["?", "</w>"], ["qu", "and"], ["quand", "o</w>"], ["us", "ar</w>"], ["<|user|>", "quando</w>"], ["d", "u"], ["çã", "o"], ["pro", "du"], ["al", "g"], ["alg", "ori"], ["algori", "t"], ["ing", ":</w>"], ["s", "c"], ["de", "p"], ["5", "]</w>"], ["mo", "de"], ["l", "e"], ["ti", "on"], ["pl", "a"], ["as", ".</w>"], ["b", "l"], ["s", "ac"], ["em", "a</w>"], ["an", "ti"], ["com", "b"], ["comb", "in"], ["combin", "e</w>"], ["de", "sac"], ["desac", "o"], ["desaco", "pla"], ["a", "ção"], ["c", "tion"], ["pro", "bl"], ["def", "in"], ["in", "ter"], ["inter", "fac"], ["in", "jete</w>"], ["ex", "em"], ["exem", "pl"], ["exempl", "o</w>"], ["as", ",</w>"], ["expl", "íci"], ["explíci", "t"], ["anti", "-"], ["anti-", "pattern"], ["anti-pattern", ":</w>"], ["ex", "per"], ["exper", "t</w>"], ["pattern", "s.</w>"], ["produ", "ction"], ["production", "-"], ["production-", "gra"], ["production-gra", "de"], ["production-grade", ".</w>"], ["defin", "a</w>"], ["probl", "ema</w>"], ["exa", "to</w>"], ["(", "vari"], ["(vari", "ação"], ["(variação", "/"], ["(variação/", "algorit"], ["(variação/algorit", "mo"], ["(variação/algoritmo", "/"], ["(variação/algoritmo/", "desacopla"], ["(variação/algoritmo/desacopla", "mento"], ["(variação/algoritmo/desacoplamento", ").</w>"], ["dep", "end"], ["depend", "ênci"], ["dependênci", "as,</w>"], ["evit", "e</w>"], ["si", "ngl"], ["singl", "et"], ["singlet", "on</w>"], ["gl", "ob"], ["glob", "al.</w>"], ["interfac", "es</w>"], ["explícit", "as.</w>"], ["mo", "da"], ["moda", ".</w>"], ["ch", "a"], ["s", "s</w>"], ["arquite", "to</w>"], ["w", "are</w>"], ["sc", "o</w>"], ["vi", "d"], ["e", "vid"], ["c", "o"], ["ad", "e</w>"], ["te", ":</w>"], ["r", "</w>"], ["cr", "yp"], ["remedia", "ção</w>"], ["te", "s</w>"], ["mi", "s"], ["l", "a"], ["a", "g"], ["#", "3]</w>"], ["#", "4]</w>"], ["#", "5]</w>"], ["6", "]</w>"], ["7", "]</w>"], ["#", "8"], ["#8", "]</w>"], ["#", "9"], ["#9", "]</w>"], ["#1", "0"], ["#10", "]</w>"], ["1", "1]</w>"], ["1", "2]</w>"], ["#1", "3]</w>"], ["#1", "4]</w>"], ["h", "</w>"], ["h", "o"], ["t", "or"], ["ti", "m"], ["r", "om"], ["tim", "e"], ["in", "t</w>"], ["h", "as"], ["i", "sol"], ["po", "int</w>"], ["emen", "t</w>"], ["i", "oc"], ["has", "h</w>"], ["en", "se</w>"], ["si", "s</w>"], ["la", "te"], ["m", "em"], ["re", "lat"], ["relat", "óri"], ["relatóri", "o</w>"], ["ência", "s</w>"], ["c", "ade"], ["cade", "i"], ["cadei", "a</w>"], ["cust", "ó"], ["dig", "it"], ["digit", "al</w>"], ["im", "ag"], ["imag", "em</w>"], ["for", "ense</w>"], ["s", "o</w>"], ["ad", "mis"], ["ga", "ção</w>"], ["time", "line</w>"], ["ex", "tra"], ["c", "tion</w>"], ["for", "ensi"], ["forensi", "c"], ["forensic", "s.</w>"], ["<|user|>", "p"], ["<|user|>p", "as"], ["<|user|>pas", "so</w>"], ["in", "ve"], ["inve", "st"], ["invest", "i"], ["investi", "gação</w>"], ["end", "point</w>"], ["comp", "rom"], ["comprom", "e"], ["comprome", "tid"], ["comprometid", "o.</w>"], ["<|assistant|>", "isol"], ["<|assistant|>isol", "e</w>"], ["ho", "st</w>"], ["di", "sco</w>"], ["mem", "óri"], ["memóri", "a</w>"], ["evid", "ências</w>"], ["an", "al"], ["anal", "y"], ["analy", "sis</w>"], ["ioc", "</w>"], ["extra", "ction</w>"], ["late", "ra"], ["latera", "l</w>"], ["mo", "v"], ["mov", "ement</w>"], ["admis", "s"], ["admiss", "ível</w>"], ["custó", "dia"], ["custódia", ".</w>"], ["w", "a"], ["ad", "</w>"], ["pa", "ga"], ["arqu", "i"], ["arqui", "v"], ["si", "stem"], ["sistem", "a</w>"], ["id", "en"], ["u", "pl"], ["upl", "o"], ["uplo", "ad</w>"], ["b", "an"], ["ga", "te"], ["gate", "wa"], ["ro", "t"], ["en", "ve"], ["ad", "as</w>"], ["m", "ar"], ["mar", "k"], ["mark", "et"], ["market", "pl"], ["marketpl", "ac"], ["marketplac", "e</w>"], ["b", "2"], ["b2", "b"], ["iden", "tid"], ["st", "rea"], ["strea", "m"], ["cor", "e</w>"], ["ban", "k"], ["he", "al"], ["heal", "th"], ["health", "c"], ["healthc", "are</w>"], ["f", "hi"], ["fhi", "r</w>"], ["9", "</w>"], ["t", ":</w>"], ["architectu", "re</w>"], ["4", "</w>"], ["idempot", "ência</w>"], ["python", ".</w>"], ["idempot", "ência"], ["idempotência", ":</w>"], ["python", ":</w>"], ["rust", ".</w>"], ["rust", ":</w>"], ["g", "o.</w>"], ["g", "o:</w>"], ["typescript", ".</w>"], ["typescript", ":</w>"], ["ja", "va.</w>"], ["ja", "va"], ["java", ":</w>"], ["cpp", ".</w>"], ["cpp", ":</w>"], ["kotlin", ".</w>"], ["kotlin", ":</w>"], ["solidit", "y.</w>"], ["solidit", "y:</w>"], ["exponenci", "al</w>"], ["exponenci", "al"], ["exponencial", ":</w>"], ["high-through", "put</w>"], ["high-through", "pu"], ["high-throughpu", "t:</w>"], ["monóli", "to</w>"], ["monóli", "to:</w>"], ["backpressu", "re</w>"], ["backpressu", "re:</w>"], ["consisten", "te</w>"], ["consisten", "te:</w>"], ["consumer-driven", "</w>"], ["consumer-driven", ":</w>"], ["architectu", "re:</w>"], ["senior", ".</w>"], ["co", "de</w>"], ["re", "vi"], ["revi", "e"], ["revie", "w"], ["o", "s:</w>"], ["paga", "mento"], ["áve", "l</w>"], ["pagamento", "s:</w>"], ["b2b", ":</w>"], ["identid", "ade"], ["identidade", ":</w>"], ["arquiv", "os:</w>"], ["stream", "ing:</w>"], ["bank", "ing:</w>"], ["gatewa", "y:</w>"], ["a", "in"], ["cont", "ain"], ["contain", "er</w>"], ["c", "4</w>"], ["mode", "l</w>"], ["n", "ível</w>"], ["a", "i"], ["f", "ai"], ["fai", "l"], ["fail", "u"], ["re", "s"], ["n", "s"], ["m", "it"], ["st", "ri"], ["master", ":</w>"], ["re", "qu"], ["u", "p"], ["s", "p"], ["c", "we"], ["ar", "d"], ["r", "bac"], ["d", "ade</w>"], ["le", "g"], ["c", "k</w>"], ["cwe", "-"], ["s", "pe"], ["spe", "c"], ["requ", "i"], ["requi", "si"], ["requisi", "t"], ["requisit", "os</w>"], ["n", "ã"], ["-", "f"], ["o", ")</w>"], ["a", "ti"], ["evit", "ar</w>"], ["on", "t"], ["e", "e"], ["h", "ard"], ["enve", "l"], ["envel", "op"], ["envelop", "e</w>"], ["en", "cryp"], ["k", "u"], ["ku", "ber"], ["kuber", "ne"], ["kuberne", "tes</w>"], ["cha", "v"], ["th", "rea"], ["threa", "t</w>"], ["stri", "de</w>"], ["si", "em</w>"], ["mit", "re</w>"], ["at", "t"], ["att", "&"], ["att&", "ck</w>"], ["res", "po"], ["respo", "sta</w>"], ["ci", "d"], ["p", "ci"], ["pci", "-d"], ["pci-d", "ss</w>"], ["c", "de</w>"], ["s", "of"], ["sof", "t"], ["soft", "ware</w>"], ["princip", "al.</w>"], ["<|assistant|>", "per"], ["<|assistant|>per", "spec"], ["<|assistant|>perspec", "tiv"], ["<|assistant|>perspectiv", "a</w>"], ["nã", "o"], ["não", "-f"], ["não-f", "un"], ["não-fun", "ci"], ["não-funci", "ona"], ["não-funciona", "is</w>"], ["(", "lat"], ["(lat", "ência"], ["(latência", ",</w>"], ["consistência", ",</w>"], ["cust", "o)</w>"], ["dia", "gra"], ["diagra", "ma</w>"], ["al", "tern"], ["altern", "ati"], ["alternati", "va"], ["alternativa", "s</w>"], ["re", "je"], ["reje", "it"], ["rejeit", "adas</w>"], ["ev", "ol"], ["evol", "ução</w>"], ["in", "cr"], ["incr", "emen"], ["incremen", "t"], ["increment", "al</w>"], ["(", "evitar</w>"], ["bi", "g</w>"], ["up", "f"], ["upf", "r"], ["upfr", "ont"], ["upfront", ")</w>"], ["failu", "re</w>"], ["mode", "s</w>"], ["cha", "os</w>"], ["eng", "in"], ["engin", "ee"], ["enginee", "ri"], ["engineeri", "ng</w>"], ["rot", "ação</w>"], ["chav", "es</w>"], ["encryp", "tion</w>"], ["as", "vs</w>"], ["hard", "en"], ["harden", "ing</w>"], ["rbac", "</w>"], ["le", "a"], ["lea", "st</w>"], ["pri", "vi"], ["privi", "leg"], ["privileg", "e</w>"], ["in", "cid"], ["incid", "ente</w>"], ["ra", "ns"], ["rans", "om"], ["ransom", "ware</w>"], ["corre", "l"], ["correl", "ação</w>"], ["cwe-", "7"], ["cwe-7", "9</w>"], ["x", "ss</w>"], ["sp", "a</w>"], ["con", "for"], ["confor", "mi"], ["conformi", "dade</w>"], ["esc", "op"], ["escop", "o</w>"], ["o", "w"], ["v", "er"], ["n", "i"], ["st", "/"], ["com", "pl"], ["cryp", "t"], ["m", "/"], ["compl", "ex"], ["th", "</w>"], ["d", "ul"], ["<|user|>", "c"], ["er", "r"], ["#1", "5]</w>"], ["re", "posi"], ["reposi", "tor"], ["(", ")</w>"], ["x", "</w>"], ["f", "er"], ["c", "k"], ["li", "st</w>"], ["s", ")</w>"], ["c", "í"], ["review", "</w>"], ["ow", "as"], ["owas", "p"], ["document", "ação</w>"], ["he", "ck"], ["heck", "list</w>"], ["<|assistant|>", "□</w>"], ["re", "fer"], ["ri", "sco</w>"], ["in", "je"], ["d", "in"], ["ç", "o</w>"], ["fac", "tor"], ["f", "u"], ["fu", "l</w>"], ["audit", "or</w>"], ["au", "di"], ["audi", "te:</w>"], ["<|assistant|>", "f"], ["<|assistant|>f", "in"], ["<|assistant|>fin", "din"], ["<|assistant|>findin", "gs</w>"], ["priori", "zados</w>"], ["evid", "ência</w>"], ["espe", "cí"], ["especí", "fi"], ["específi", "ca</w>"], ["es", "for"], ["esfor", "ço</w>"], ["est", "im"], ["estim", "ado</w>"], ["p", "ó"], ["pó", "s"], ["pós", "-"], ["pós-", "fi"], ["pós-fi", "x</w>"], ["refer", "ência</w>"], ["owasp", "/"], ["owasp/", "ni"], ["owasp/ni", "st/"], ["owasp/nist/", "c"], ["owasp/nist/c", "w"], ["owasp/nist/cw", "e</w>"], ["review", "er</w>"], ["<|user|>c", "hecklist</w>"], ["(", "inje"], ["(inje", "c"], ["(injec", "tion,</w>"], ["secret", "s)</w>"], ["err", "os</w>"], ["tra", "t"], ["trat", "ados</w>"], ["con", "cor"], ["concor", "r"], ["concorr", "ência</w>"], ["segura", "</w>"], ["complex", "id"], ["complexid", "ade</w>"], ["o", "()</w>"], ["ac", "e"], ["ace", "it"], ["aceit", "ável</w>"], ["m", "ean"], ["mean", "ing"], ["meaning", "ful</w>"], ["est", "ável</w>"], ["in", "varian"], ["invarian", "tes</w>"], ["ad", "ap"], ["de", "co"], ["deco", "ra"], ["com", "m"], ["comm", "and"], ["mi", "c"], ["mic", "ro"], ["ser", "vi"], ["o", "?</w>"], ["micro", "servi"], ["c", "es</w>"], ["gra", "p"], ["grap", "h"], ["python", "?</w>"], ["pyth", "on,</w>"], ["rust", "?</w>"], ["rust", ",</w>"], ["g", "o?</w>"], ["g", "o,</w>"], ["typescript", "?</w>"], ["typescript", ",</w>"], ["<|user|>", "microservi"], ["<|user|>microservi", "ces</w>"], ["mo", "dul"], ["modul", "ar</w>"], ["mon", "o"], ["mono", "li"], ["monoli", "th</w>"], ["k", "e"], ["o", "u"], ["d", "</w>"], ["n", "on"], ["s", ",</w>"], ["ni", "c"], ["ú", "nic"], ["ke", "y</w>"], ["com", "o</w>"], ["m", "o</w>"], ["non", "ce</w>"], ["rot", "a"], ["n", "k"], ["ow", "n</w>"], ["h", "s"], ["crypt", "o"], ["crypto", "graph"], ["cryptograph", "y.</w>"], ["produ", "ção"], ["produção", "?</w>"], ["bi", "b"], ["bib", "li"], ["bibli", "o"], ["biblio", "tec"], ["bibliotec", "as</w>"], ["audit", "adas</w>"], ["(", "li"], ["(li", "b"], ["(lib", "so"], ["(libso", "di"], ["(libsodi", "u"], ["(libsodiu", "m/"], ["(libsodium/", "ti"], ["(libsodium/ti", "nk"], ["(libsodium/tink", ").</w>"], ["rol", "l</w>"], ["y", "ou"], ["you", "r</w>"], ["crypt", "o.</w>"], ["rota", "tion,</w>"], ["hs", "m/"], ["hsm/", "km"], ["hsm/km", "s,</w>"], ["únic", "o,</w>"], ["ver", "si"], ["versi", "onamento</w>"], ["algorit", "mo</w>"], ["enve", "lo"], ["envelo", "pe"], ["envelope", ".</w>"], ["repositor", "y</w>"], ["<|assistant|>", "repositor"], ["<|assistant|>repositor", "y:</w>"], ["2", "5"], ["t", "or</w>"], ["25", "5"], ["255", "1"], ["factor", "y</w>"], ["<|assistant|>", "factor"], ["<|assistant|>factor", "y:</w>"], ["strateg", "y</w>"], ["<|assistant|>", "strateg"], ["<|assistant|>strateg", "y:</w>"], ["obser", "v"], ["observ", "er</w>"], ["<|assistant|>", "obser"], ["<|assistant|>obser", "ver"], ["<|assistant|>observer", ":</w>"], ["adap", "ter</w>"], ["<|assistant|>", "adap"], ["<|assistant|>adap", "ter"], ["<|assistant|>adapter", ":</w>"], ["decora", "tor</w>"], ["<|assistant|>", "decora"], ["<|assistant|>decora", "tor"], ["<|assistant|>decorator", ":</w>"], ["command", "</w>"], ["<|assistant|>", "command"], ["<|assistant|>command", ":</w>"], ["m", "</w>"], ["2", "0"], ["5", "</w>"], ["paga", "ment"], ["pagament", "os</w>"], ["1", "3"], ["b2b", "</w>"], ["identid", "ade</w>"], ["arquiv", "os</w>"], ["stream", "ing</w>"], ["bank", "ing</w>"], ["gatewa", "y</w>"], [";", "</w>"], ["e", "d"], ["sta", "te</w>"], ["a", "es"], ["aes", "-"], ["li", "m"], ["1", "</w>"], ["g", "c"], ["s", "a"], ["si", "on</w>"], ["aes-", "gc"], ["ch", "ach"], ["chach", "a"], ["chacha", "20"], ["es", "s</w>"], ["lim", "it</w>"], ["d", "at"], ["chacha20", "-"], ["chacha20-", "p"], ["chacha20-p", "ol"], ["chacha20-pol", "y"], ["chacha20-poly", "13"], ["chacha20-poly13", "0"], ["ser", "ver"], ["/", "c"], ["sc", "ori"], ["d", "a</w>"], ["c", "ol"], ["6", "</w>"], ["q", "l</w>"], ["l", "ess</w>"], ["m", "ó"], ["mó", "dul"], ["<|user|>", "s"], ["dat", "a</w>"], ["ed", "2551"], ["9", ":</w>"], ["x", "2551"], ["ar", "gon"], ["argon", "2"], ["argon2", "id"], ["7", "</w>"], ["8", "</w>"], ["graph", "ql</w>"], ["dep", "th</w>"], ["complex", "it"], ["complexit", "y</w>"], ["scori", "ng</w>"], ["l", "am"], ["lam", "b"], ["lamb", "da</w>"], ["server", "less</w>"], ["col", "d</w>"], ["st", "ar"], ["star", "t</w>"], ["i", "am"], ["iam", "</w>"], ["o", "ver"], ["over", "per"], ["overper", "mis"], ["overpermis", "sion</w>"], ["ter", "ra"], ["terra", "for"], ["terrafor", "m</w>"], ["módul", "o</w>"], ["r", "em"], ["rem", "o"], ["remo", "to</w>"], ["l", "oc"], ["loc", "k"], ["lock", "ing</w>"], ["ci", "/c"], ["ci/c", "d</w>"], ["sa", "st/"], ["sast/", "da"], ["sast/da", "st/"], ["sast/dast/", "s"], ["sast/dast/s", "ca</w>"], ["integra", "dos</w>"], ["m", "es"], ["pyth", "on</w>"], ["=", "</w>"], ["u", "r"], ["po", "lic"], ["e", "ven"], ["b", "u"], ["par", "ti"], ["re", "de</w>"], ["m", ":</w>"], ["<|user|>", "g"], ["polic", "y</w>"], ["0", "</w>"], ["ru", "st</w>"], ["<|user|>", "even"], ["<|user|>", "c4</w>"], ["o", "gra"], ["ogra", "fi"], ["ografi", "a</w>"], ["ra", "ção</w>"], ["so", "ur"], ["mes", "h</w>"], ["<|user|>c", "ap"], ["<|user|>cap", "</w>"], ["aes-gc", "m</w>"], ["chacha20-poly130", "5"], ["<|assistant|>", "aes-gc"], ["<|assistant|>aes-gc", "m:</w>"], ["<|user|>g", "it"], ["<|user|>git", "op"], ["<|user|>gitop", "s</w>"], ["ar", "g"], ["arg", "oc"], ["op", "a</w>"], ["1", "2</w>"], ["se", "l"], ["sel", "f"], ["<|user|>s", "ag"], ["<|user|>sag", "a</w>"], ["co", "re"], ["core", "ografia</w>"], ["or", "qu"], ["orqu", "est"], ["orquest", "ração</w>"], ["<|user|>even", "t</w>"], ["sour", "cing</w>"], ["c", "q"], ["cq", "r"], ["cqr", "s</w>"], ["<|user|>", "data</w>"], ["la", "ke"], ["lake", "ho"], ["lakeho", "use</w>"], ["d", "ura"], ["dura", "n"], ["duran", "te</w>"], ["parti", "tion</w>"], ["chacha20-poly130", "5</w>"], ["<|assistant|>", "chacha20-poly1305"], ["<|assistant|>chacha20-poly1305", ":</w>"], ["ed2551", "9</w>"], ["<|assistant|>", "ed2551"], ["<|assistant|>ed2551", "9:</w>"], ["x2551", "9</w>"], ["<|assistant|>", "x2551"], ["<|assistant|>x2551", "9:</w>"], ["argon2id", "</w>"], ["<|assistant|>", "argon2id"], ["<|assistant|>argon2id", ":</w>"], ["<|user|>s", "lo"], ["<|user|>slo", "/"], ["<|user|>slo/", "err"], ["<|user|>slo/err", "or</w>"], ["bu", "d"], ["bud", "g"], ["budg", "e"], ["budge", "t</w>"], ["s", "re</w>"], ["argoc", "d</w>"], ["3", "</w>"], ["1", "0</w>"], ["1", "1</w>"], ["13", "</w>"], ["1", "4</w>"], ["1", "5</w>"], ["1", "6</w>"], ["1", "7</w>"], ["1", "8</w>"], ["1", "9</w>"], ["20", "</w>"], ["g", "o</w>"], ["typescrip", "t</w>"], ["ja", "va</w>"], ["cpp", "</w>"], ["kotlin", "</w>"], ["solidit", "y</w>"], ["self", "."], ["`", "`"], ["s", "em</w>"], ["self.", "_"], ["`", "</w>"], ["c", "e"], ["failu", "re"], ["te", "n"], ["im", "p"], ["un", "t"], ["u", "t"], ["t", "o"], ["f", "rom"], ["a", "t</w>"], ["d", "("], ["sta", "te"], ["idempo", "ten"], ["fi", "e"], ["o", ";</w>"], ["f", "</w>"], ["def", "</w>"], ["w", "h"], ["cl", "o"], ["imp", "or"], ["impor", "t</w>"], ["cl", "as"], ["state", "."], ["n", "a"], ["s", "ag"], ["tra", "ns"], ["ul", "t"], ["p", "r"], [">", "</w>"], ["bilid", "ade</w>"], ["a", "mento</w>"], ["mo", "unt"], [")", ";</w>"], ["def", "a"], ["lo", "g</w>"], ["z", "ação</w>"], ["ex", "e"], ["g", "i"], ["lo", "ad"], ["n", "o</w>"], ["s", "h"], ["es", "s"], ["b", "al"], ["or", "te"], ["c", "</w>"], ["from", "</w>"], ["fie", "l"], ["c", "al"], ["clo", "se"], ["open", "</w>"], ["self._", "state</w>"], ["on", "_"], ["aud", "it</w>"], ["ou", "t"], ["<|assistant|>", "1)</w>"], ["contain", "er"], ["en", "t"], ["h", "ol"], ["de", "ci"], ["t", "he"], ["ti", "c"], ["ou", "</w>"], ["ce", "l"], ["ke", "y"], ["p", "s</w>"], ["pa", "c"], ["i", "p"], ["senior", ":</w>"], ["of", "</w>"], ["s", ";</w>"], ["ve", "ri"], ["qu", "e"], ["d", "p"], ["po", "st"], ["l", "s</w>"], ["k", "en"], ["ul", "t</w>"], ["ex", "p"], ["l", "a</w>"], ["au", "t"], ["ad", "o"], ["exe", "cu"], ["ce", "p"], ["ã", "o</w>"], ["m", "a"], ["li", "z"], ["n", "g"], ["er", ".</w>"], ["m", "e"], ["``", "`"], ["```", "python</w>"], ["a", "mount"], [")", ":</w>"], ["(", "f"], ["wh", "er"], ["wher", "e</w>"], ["``", "`</w>"], ["f", "lo"], ["flo", "at</w>"], ["ow", "n"], ["tion", ":</w>"], ["te", "st"], ["t", "y"], ["s", "orte"], ["sorte", "d("], ["d", "ata"], ["data", "clas"], ["en", "u"], ["cal", "la"], ["calla", "b"], ["callab", "le"], ["'", "</w>"], ["h", "al"], ["hal", "f"], ["half", "_"], ["fiel", "d("], ["field(", "defa"], ["field(defa", "ult"], ["field(default", "="], ["in", "it"], ["init", "="], ["init=", "fal"], ["init=fal", "se"], ["init=false", ")</w>"], ["open", "ed"], ["opened", "_"], ["(", "self"], ["]", ",</w>"], ["fal", "lbac"], ["fallbac", "k"], ["-", "></w>"], ["i", "f</w>"], ["ret", "ur"], ["retur", "n</w>"], ["self._", "failure"], ["self._failure", "s</w>"], [":", ":"], ["s", "ín"], ["sín", "cr"], ["síncr", "on"], ["te", "m"], ["l", ",</w>"], ["c", "ar"], ["na", "tura"], ["a", "ções</w>"], ["es", ",</w>"], ["re", "ad"], ["out", "bo"], ["outbo", "x</w>"], ["mes", "sag"], ["b", "ro"], ["(", "k"], ["s", "ch"], ["sch", "ema</w>"], ["íve", "is</w>"], ["contex", "t"], ["comp", "on"], ["ci", "on"], ["en", "t</w>"], ["de", "v"], ["deci", "sion</w>"], ["á", "tic"], ["h", "a</w>"], ["consist", "ência</w>"], ["di", "sp"], ["disp", "oni"], ["s", "and"], ["l", "e</w>"], ["even", "tu"], ["eventu", "al</w>"], ["di", "s"], ["le", "/"], ["únic", "o</w>"], ["u", "x</w>"], ["n", "am"], ["nam", "es"], ["c", "g"], ["cg", "rou"], ["cgrou", "ps</w>"], ["es", ":</w>"], ["isol", "amento</w>"], ["2", ":</w>"], ["tim", "e</w>"], ["ad", "o.</w>"], ["pri", "n"], ["prin", "cí"], ["princí", "pi"], ["tr", "u"], ["re", "con"], ["u", "d"], ["in", "f"], ["s", "/"], ["d", "en"], ["polic", "y"], ["re", "sum"], ["resum", "o</w>"], ["veri", "fi"], ["as", "sum"], ["m", "f"], ["mf", "a</w>"], ["re", ".</w>"], ["s", "pi"], ["f", "e"], ["a", "bac"], ["en", "tra"], ["te", "st</w>"], ["ap", "is</w>"], ["aut", "om"], ["ç", "õ"], ["c", "v"], ["cv", "ss</w>"], ["cep", "t</w>"], ["im", "pac"], ["impac", "to</w>"], ["ne", "g"], ["neg", "ó"], ["negó", "ci"], ["ioc", "s</w>"], ["n", "or"], ["has", "h"], ["k", "i"], ["l", "l</w>"], ["t", "t"], ["cwe-", "5"], ["cwe-5", "0"], ["segura", ".</w>"], ["pi", "ck"], ["y", "am"], ["yam", "l"], ["yaml", "."], ["lo", "ad</w>"], ["si", "ze</w>"], ["p", "</w>"], ["a", ",</w>"], ["g", "in"], ["al", ",</w>"], ["w", "ri"], ["wri", "te"], ["ar", "ma"], ["arma", "z"], ["armaz", "en"], ["armazen", "amento</w>"], ["ac", "es"], ["lo", "g"], ["inte", "g"], ["t", "ls</w>"], ["1", "."], ["i", "zação</w>"], ["pr", "oc"], ["proc", "ess"], ["ado", "re"], ["h", "and"], ["(", "'"], ["trans", "fer"], ["'", ")</w>"], ["from", "_"], ["i", "d,</w>"], ["to", "_"], ["d", "b"], ["db", "."], ["db.", "execu"], ["db.execu", "te"], ["db.execute", "(f"], ["db.execute(f", "\""], ["db.execute(f\"", "up"], ["db.execute(f\"up", "da"], ["db.execute(f\"upda", "te</w>"], ["ac", "co"], ["acco", "unt"], ["account", "s</w>"], ["se", "t</w>"], ["bal", "="], ["bal=", "bal"], ["{", "amount"], ["{amount", "}"], ["{amount}", "</w>"], ["id", "="], ["id=", "{"], ["id", "}"], ["id}", "\""], ["id}\"", ")</w>"], ["í", "ti"], ["íti", "co"], ["au", "th"], ["idempoten", "cy"], ["te", "ri"], ["teri", "z"], ["au", "th</w>"], ["wa", "re"], ["ware", ",</w>"], ["cli", "en"], ["clien", "te"], ["sc", "an"], ["li", "mit"], ["boun", "d"], ["to", "ken"], ["se", "s</w>"], ["p", ":</w>"], ["h", "y"], ["hy", "po"], ["hypo", "the"], ["hypothe", "sis</w>"], ["<|assistant|>", "```python</w>"], ["gi", "ven"], ["(", "st"], ["(st", "."], ["(", ")"], [")", ")</w>"], ["or", "t"], ["x", "s"], ["=", "=</w>"], ["pro", "gra"], ["progra", "m"], ["enu", "m</w>"], ["ty", "pe"], ["type", "v"], ["clas", "s</w>"], ["close", "d</w>"], ["open", "'</w>"], ["half_", "open</w>"], ["failure", "_"], ["failure_", "th"], ["failure_th", "res"], ["failure_thres", "hol"], ["failure_threshol", "d"], ["failure_threshold", ":</w>"], ["re", "co"], ["reco", "ver"], ["recover", "y"], ["recovery", "_"], ["recovery_", "time"], ["recovery_time", "ou"], ["recovery_timeou", "t:</w>"], ["0", "."], ["0", ",</w>"], ["f", "n"], ["callable", "["], ["callable[", "["], ["callable[[", "],</w>"], ["time", "."], ["time.", "mon"], ["time.mon", "ot"], ["time.monot", "oni"], ["time.monotoni", "c"], ["time.monotonic", "()</w>"], ["self._", "opened_"], ["self._opened_", "at</w>"], [">", "=</w>"], ["fallback", "()</w>"], ["res", "ult</w>"], ["self._", "on_"], ["su", "c"], ["suc", "c"], ["succ", "ess"], ["_", "on_"], ["(self", ")</w>"], ["non", "e"], ["none", ":</w>"], ["ing", ".</w>"], ["c", "an"], ["m", "p"], ["mp", "sc"], ["sh", "ut"], ["shut", "d"], ["::", "sy"], ["::sy", "n"], ["g", "u"], ["d", "`</w>"], ["d", "o</w>"], ["requ", "est"], ["_", "re"], ["_re", "late"], ["<|user|>even", "t"], ["<|user|>event", "-driven"], ["<|user|>event-driven", "</w>"], ["síncron", "o?</w>"], ["<|assistant|>", "e"], ["<|assistant|>e", "da"], ["<|assistant|>eda", ":</w>"], ["desacopla", "mento</w>"], ["tem", "po"], ["tempo", "ra"], ["tempora", "l,</w>"], ["pi", "c"], ["pic", "os</w>"], ["car", "ga"], ["carga", ",</w>"], ["tra", "i"], ["trai", "l</w>"], ["natura", "l,</w>"], ["sag", "as</w>"], ["trans", "ações</w>"], ["di", "stri"], ["distri", "bu"], ["distribu", "í"], ["distribuí", "d"], ["distribuíd", "as.</w>"], ["re", "st"], ["rest", ":</w>"], ["con", "s"], ["cons", "ult"], ["consult", "as</w>"], ["síncron", "as</w>"], ["si", "m"], ["sim", "pl"], ["simpl", "es,</w>"], ["b", "ai"], ["bai", "x"], ["baix", "a</w>"], ["read", ".</w>"], ["messag", "e</w>"], ["bro", "ker</w>"], ["(k", "a"], ["(ka", "f"], ["(kaf", "k"], ["(kafk", "a"], ["(kafka", ")</w>"], ["idempoten", "t</w>"], ["consumer", "s</w>"], ["reg", "i"], ["regi", "st"], ["regist", "r"], ["registr", "y</w>"], ["(", "a"], ["(a", "v"], ["(av", "ro"], ["(avro", "/"], ["(avro/", "pro"], ["(avro/pro", "t"], ["(avro/prot", "ob"], ["(avro/protob", "u"], ["(avro/protobu", "f"], ["(avro/protobuf", ").</w>"], ["n", "íveis</w>"], ["system", "</w>"], ["context", ";</w>"], ["container", ";</w>"], ["compon", "ent"], ["component", ";</w>"], ["(", "op"], ["(op", "cion"], ["(opcion", "al"], ["(opcional", ").</w>"], ["ent", "reg"], ["entreg", "a</w>"], ["context", "+"], ["context+", "container</w>"], ["sta", "ke"], ["stake", "hol"], ["stakehol", "de"], ["stakeholde", "r"], ["stakeholder", "s,</w>"], ["compon", "ent</w>"], ["dev", "s.</w>"], ["com", "plemente</w>"], ["adr", "s</w>"], ["(", "architecture</w>"], ["re", "cor"], ["recor", "d"], ["record", "s"], ["records", ").</w>"], ["the", "or"], ["theor", "em</w>"], ["imp", "lic"], ["implic", "ações</w>"], ["pr", "átic"], ["prátic", "as</w>"], ["arquite", "t"], ["arquitet", "o.</w>"], ["<|assistant|>", "parti"], ["<|assistant|>parti", "ção</w>"], ["for", "ça</w>"], ["esc", "ol"], ["escol", "ha</w>"], ["cp", "</w>"], ["ap", ".</w>"], ["cp", ":</w>"], ["et", "c"], ["etc", "d,</w>"], ["z", "o"], ["zo", "o"], ["zoo", "k"], ["zook", "ee"], ["zookee", "per"], ["zookeeper", "</w>"], ["(", "consistência</w>"], ["disponi", "bilidade"], ["disponibilidade", ").</w>"], ["ap", ":</w>"], ["cas", "sand"], ["cassand", "ra"], ["cassandra", ",</w>"], ["d", "y"], ["dy", "na"], ["dyna", "mo"], ["dynamo", "-"], ["dynamo-", "st"], ["dynamo-st", "y"], ["dynamo-sty", "le</w>"], ["(", "disponi"], ["(disponi", "bilidade</w>"], ["consisten", "cy"], ["consistency", ").</w>"], ["pa", "cel"], ["pacel", "c"], ["pacelc", ":</w>"], ["mes", "mo</w>"], ["parti", "tion,</w>"], ["chacha20-poly1305", "?</w>"], ["hard", "ware</w>"], ["aes-", "n"], ["aes-n", "i</w>"], ["dis", "pon"], ["dispon", "ível</w>"], ["(", "inte"], ["(inte", "l"], ["(intel", "/"], ["(intel/", "am"], ["(intel/am", "d</w>"], ["server", ").</w>"], ["chacha20", ":</w>"], ["mo", "bi"], ["mobi", "le/"], ["mobile/", "em"], ["mobile/em", "b"], ["mobile/emb", "ed"], ["mobile/embed", "de"], ["mobile/embedde", "d</w>"], ["a", "es</w>"], ["ac", "cel"], ["accel", ".</w>"], ["am", "bo"], ["ambo", "s:</w>"], ["men", "sag"], ["mensag", "em"], ["mensagem", ",</w>"], ["re", "use</w>"], ["key", "+"], ["key+", "non"], ["key+non", "ce"], ["key+nonce", ".</w>"], ["rota", "tion</w>"], ["encryp", "tion"], ["encryption", ".</w>"], ["<|user|>", "lin"], ["<|user|>lin", "ux</w>"], ["names", "pa"], ["namespa", "ces</w>"], ["b", "as"], ["bas", "e</w>"], ["container", "s.</w>"], ["<|assistant|>", "names"], ["<|assistant|>names", "pac"], ["<|assistant|>namespac", "es:</w>"], ["pi", "d,</w>"], ["ne", "t"], ["net", ",</w>"], ["mount", ",</w>"], ["ut", "s,</w>"], ["ip", "c"], ["ipc", ",</w>"], ["user", ".</w>"], ["v", "2:</w>"], ["lim", "ite"], ["limite", "s</w>"], ["c", "pu"], ["cpu", "/"], ["cpu/", "mem"], ["cpu/mem", "/"], ["cpu/mem/", "i"], ["cpu/mem/i", "o.</w>"], ["run", "time</w>"], ["(", "container"], ["(container", "d"], ["(containerd", ")</w>"], ["comp", "õ"], ["compõ", "e</w>"], ["o", "ci"], ["oci", "</w>"], ["spec", "</w>"], ["sec", "comp"], ["seccomp", "/"], ["seccomp/", "ap"], ["seccomp/ap", "par"], ["seccomp/appar", "m"], ["seccomp/apparm", "or"], ["seccomp/apparmor", ".</w>"], ["nã", "o</w>"], ["v", "m</w>"], ["ker", "ne"], ["kerne", "l</w>"], ["comp", "ar"], ["compar", "ti"], ["comparti", "l"], ["compartil", "h"], ["compartilh", "ado.</w>"], ["princípi", "os</w>"], ["<|assistant|>", "g"], ["<|assistant|>g", "it</w>"], ["sour", "ce</w>"], ["tru", "th"], ["truth", ";</w>"], ["argoc", "d/"], ["argocd/", "f"], ["argocd/f", "l"], ["argocd/fl", "ux</w>"], ["recon", "ci"], ["reconci", "li"], ["reconcili", "a</w>"], ["clu", "s"], ["clus", "ter"], ["cluster", ";</w>"], ["p", "r</w>"], ["m", "ud"], ["mud", "an"], ["mudan", "ç"], ["mudanç", "as</w>"], ["inf", "ra"], ["infra", ";</w>"], ["d", "ri"], ["dri", "f"], ["drif", "t</w>"], ["detec", "tion"], ["detection", ";</w>"], ["se", "al"], ["seal", "ed"], ["sealed", "-"], ["sealed-", "secret"], ["sealed-secret", "s/"], ["sealed-secrets/", "ex"], ["sealed-secrets/ex", "tern"], ["sealed-secrets/extern", "al"], ["sealed-secrets/external", "-"], ["sealed-secrets/external-", "secrets</w>"], ["c", "re"], ["cre", "den"], ["creden", "cia"], ["credencia", "i"], ["credenciai", "s;</w>"], ["policy", "-"], ["policy-", "as"], ["policy-as", "-"], ["policy-as-", "code</w>"], ["(k", "y"], ["(ky", "ver"], ["(kyver", "n"], ["(kyvern", "o"], ["(kyverno", "/"], ["(kyverno/", "o"], ["(kyverno/o", "pa"], ["(kyverno/opa", ").</w>"], ["<|user|>", "resumo</w>"], ["z", "er"], ["zer", "o</w>"], ["tru", "st</w>"], ["(", "ni"], ["(ni", "st</w>"], ["sp", "</w>"], ["8", "0"], ["80", "0"], ["800", "-"], ["800-", "20"], ["800-20", "7"], ["800-207", ").</w>"], ["<|assistant|>", "princípi"], ["<|assistant|>princípi", "os:</w>"], ["con", "fie"], ["confie", ",</w>"], ["s", "em"], ["sem", "p"], ["semp", "re</w>"], ["verifi", "que"], ["verifique", ";</w>"], ["assum", "e</w>"], ["b", "re"], ["bre", "ach"], ["breach", ";</w>"], ["(", "p"], ["(p", "dp"], ["(pdp", ")</w>"], ["en", "for"], ["enfor", "c"], ["enforc", "ement</w>"], ["(", "pe"], ["(pe", "p"], ["(pep", ");</w>"], ["micro", "-"], ["micro-", "seg"], ["micro-seg", "ment"], ["micro-segment", "ação"], ["micro-segmentação", ";</w>"], ["contínu", "o;</w>"], ["de", "vi"], ["devi", "ce</w>"], ["post", "u"], ["postu", "re.</w>"], ["im", "plem"], ["implem", "ent"], ["implement", "a"], ["implementa", "çã"], ["implementaçã", "o:</w>"], ["servi", "ce</w>"], ["mt", "ls</w>"], ["spi", "f"], ["spif", "fe"], ["spiffe", "/"], ["spiffe/", "spi"], ["spiffe/spi", "re</w>"], ["abac", ".</w>"], ["<|user|>", "owasp"], ["<|user|>owasp", "</w>"], ["a", "0"], ["a0", "1</w>"], ["bro", "ken"], ["broken", "</w>"], ["ac", "c"], ["acc", "ess</w>"], ["control", "</w>"], ["c", "hecklist</w>"], ["den", "y</w>"], ["b", "y</w>"], ["defa", "ult</w>"], ["rbac", "/"], ["rbac/", "abac"], ["rbac/abac", "</w>"], ["c", "entra"], ["centra", "li"], ["centrali", "zado</w>"], ["id", "or</w>"], ["to", "dos</w>"], ["re", "cu"], ["recu", "r"], ["recur", "s"], ["recurs", "os</w>"], ["j", "w"], ["jw", "t:</w>"], ["valid", "ar</w>"], ["au", "d/"], ["aud/", "i"], ["aud/i", "s"], ["aud/is", "s/"], ["aud/iss/", "exp"], ["aud/iss/exp", "</w>"], ["b", "ol"], ["bol", "a"], ["bola", "/"], ["bola/", "b"], ["bola/b", "f"], ["bola/bf", "la</w>"], ["end", "po"], ["endpo", "in"], ["endpoin", "t"], ["endpoint", "s</w>"], ["sen", "s"], ["sens", "íveis</w>"], ["im", "ut"], ["imut", "ável</w>"], ["aut", "ori"], ["autori", "zação</w>"], ["h", "ori"], ["hori", "z"], ["horiz", "ont"], ["horizont", "al/"], ["horizontal/", "ver"], ["horizontal/ver", "tic"], ["horizontal/vertic", "al</w>"], ["autom", "ati"], ["automati", "z"], ["automatiz", "ado"], ["automatizado", "s.</w>"], ["<|user|>", "tem"], ["<|user|>tem", "pla"], ["<|user|>templa", "te</w>"], ["v", "ul"], ["vul", "ne"], ["vulne", "ra"], ["vulnera", "bilidade</w>"], ["e", "qu"], ["equ", "ip"], ["equip", "e</w>"], ["de", "sen"], ["desen", "v"], ["desenv", "ol"], ["desenvol", "vi"], ["desenvolvi", "ment"], ["desenvolviment", "o.</w>"], ["<|assistant|>", "se"], ["<|assistant|>se", "çõ"], ["<|assistant|>seçõ", "es:</w>"], ["execu", "tiv"], ["executiv", "o</w>"], ["cwe", "/c"], ["cwe/c", "v"], ["cwe/cv", "e</w>"], ["3", "."], ["3.", "1</w>"], ["ve", "c"], ["vec", "tor</w>"], ["pro", "of</w>"], ["con", "cept</w>"], ["s", "an"], ["san", "i"], ["sani", "ti"], ["saniti", "zado</w>"], ["negóci", "o</w>"], ["p", "ra"], ["pra", "z"], ["praz", "o</w>"], ["s", "la</w>"], ["se", "veri"], ["severi", "dade</w>"], ["reg", "res"], ["regres", "s"], ["regress", "ão</w>"], ["refer", "ências</w>"], ["owasp", ".</w>"], ["<|user|>", "corre"], ["<|user|>corre", "la"], ["<|user|>correla", "cion"], ["<|user|>correlacion", "ar</w>"], ["m", "et"], ["met", "o"], ["meto", "d"], ["metod", "ol"], ["metodol", "o"], ["metodolo", "gi"], ["metodologi", "a.</w>"], ["nor", "ma"], ["norma", "liz"], ["normaliz", "ar</w>"], ["tim", "est"], ["timest", "am"], ["timestam", "ps</w>"], ["ut", "c"], ["utc", ";</w>"], ["(", "ip"], ["(ip", ",</w>"], ["d", "om"], ["dom", "ain"], ["domain", ",</w>"], ["fi", "le</w>"], ["hash", ");</w>"], ["mapp", "ing"], ["mapping", ";</w>"], ["ki", "ll</w>"], ["cha", "in</w>"], ["recon", "st"], ["reconst", "ru"], ["reconstru", "ction"], ["reconstruction", ";</w>"], ["scori", "ng"], ["scoring", ";</w>"], ["contain", "men"], ["containmen", "t</w>"], ["pla", "y"], ["play", "book</w>"], ["tt", "p"], ["ttp", ".</w>"], ["<|user|>", "an"], ["<|user|>an", "a"], ["<|user|>ana", "lise</w>"], ["cwe-50", "2</w>"], ["pro", "pon"], ["propon", "ha</w>"], ["<|assistant|>", "cwe-50"], ["<|assistant|>cwe-50", "2:</w>"], ["de", "se"], ["dese", "ri"], ["deseri", "a"], ["deseria", "li"], ["deseriali", "zação</w>"], ["in", "segura.</w>"], ["al", "to</w>"], ["entra", "da</w>"], ["user", "-"], ["user-", "control"], ["user-control", "le"], ["user-controlle", "d"], ["user-controlled", ".</w>"], ["remediaçã", "o:</w>"], ["j", "s"], ["js", "on"], ["json", "/"], ["json/", "messag"], ["json/messag", "e"], ["json/message", "pa"], ["json/messagepa", "ck</w>"], ["valida", "tion</w>"], ["(", "py"], ["(py", "d"], ["(pyd", "anti"], ["(pydanti", "c"], ["(pydantic", ")"], ["(pydantic)", ",</w>"], ["pick", "le/"], ["pickle/", "yaml."], ["pickle/yaml.", "load</w>"], ["sa", "fe"], ["safe", "load"], ["safeload", "er.</w>"], ["def", "ense</w>"], ["dep", "th"], ["depth", ":</w>"], ["wa", "f</w>"], ["lim", "its</w>"], ["al", "lo"], ["allo", "w"], ["allow", "list</w>"], ["ti", "po"], ["tipo", "s.</w>"], ["auditori", "a:</w>"], ["g", "re"], ["gre", "p</w>"], ["`", "pick"], ["`pick", "le"], ["`pickle", "."], ["`pickle.", "load"], ["`pickle.load", "s"], ["`pickle.loads", "|"], ["`pickle.loads|", "yaml."], ["`pickle.loads|yaml.", "load"], ["`pickle.loads|yaml.load", "`</w>"], ["ci", ".</w>"], ["<|user|>", "cadeia</w>"], ["custó", "di"], ["custódi", "a</w>"], ["for", "en"], ["foren", "se"], ["forense", ".</w>"], ["<|assistant|>", "document"], ["<|assistant|>document", "ar"], ["<|assistant|>documentar", ":</w>"], ["qu", "em</w>"], ["col", "et"], ["colet", "ou"], ["coletou", ",</w>"], ["quand", "o,</w>"], ["fer", "ra"], ["ferra", "ment"], ["ferrament", "a,</w>"], ["sh", "a"], ["sha", "-"], ["sha-", "25"], ["sha-25", "6</w>"], ["ori", "gin"], ["origin", "al,</w>"], ["write", "-"], ["write-", "bl"], ["write-bl", "oc"], ["write-bloc", "ker"], ["write-blocker", ",</w>"], ["verifi", "c"], ["verific", "ad"], ["verificad", "a,</w>"], ["wor", "m"], ["worm", ",</w>"], ["aces", "so</w>"], ["log", "ado.</w>"], ["admis", "si"], ["admissi", "bilidade</w>"], ["dep", "en"], ["depen", "de</w>"], ["integ", "ri"], ["integri", "dade</w>"], ["com", "pro"], ["compro", "v"], ["comprov", "ad"], ["comprovad", "a.</w>"], ["<|user|>g", "dp"], ["<|user|>gdp", "r</w>"], ["ar", "t"], ["art", ".</w>"], ["3", "2</w>"], ["me", "di"], ["medi", "d"], ["medid", "as</w>"], ["t", "é"], ["té", "c"], ["téc", "nic"], ["técnic", "as</w>"], ["sa", "as.</w>"], ["<|assistant|>", "c"], ["<|assistant|>c", "rip"], ["<|assistant|>crip", "t"], ["<|assistant|>cript", "ografia</w>"], ["tr", "â"], ["trâ", "n"], ["trân", "si"], ["trânsi", "to</w>"], ["(", "tls</w>"], ["1.", "3)</w>"], ["re", "po"], ["repo", "us"], ["repous", "o</w>"], ["(", "aes-"], ["(aes-", "25"], ["(aes-25", "6"], ["(aes-256", "-"], ["(aes-256-", "gc"], ["(aes-256-gc", "m"], ["(aes-256-gcm", ");</w>"], ["p", "se"], ["pse", "ud"], ["pseud", "on"], ["pseudon", "im"], ["pseudonim", "ização</w>"], ["pi", "i"], ["pii", ";</w>"], ["rbac", ";</w>"], ["log", "g"], ["logg", "ing</w>"], ["aces", "so"], ["acesso", ";</w>"], ["d", "pi"], ["dpi", "a</w>"], ["document", "ad"], ["documentad", "a"], ["documentada", ";</w>"], ["ri", "gh"], ["righ", "t</w>"], ["e", "ra"], ["era", "su"], ["erasu", "re</w>"], ["cas", "c"], ["casc", "ade</w>"], ["de", "le"], ["dele", "te</w>"], ["back", "up"], ["backup", "</w>"], ["policy", ";</w>"], ["dp", "a</w>"], ["su", "b"], ["sub", "process"], ["subprocess", "adore"], ["subprocessadore", "s.</w>"], ["<|user|>", "code</w>"], ["iden", "ti"], ["identi", "fi"], ["identifi", "que</w>"], ["probl", "em"], ["problem", "as</w>"], ["n", "est"], ["nest", "e</w>"], ["hand", "l"], ["handl", "er.</w>"], ["@", "ap"], ["@ap", "p"], ["@app", "."], ["@app.", "post"], ["@app.post", "('"], ["@app.post('", "/"], ["@app.post('/", "transfer"], ["@app.post('/transfer", "')</w>"], ["transfer", "("], ["transfer(", "from_"], ["transfer(from_", "id,</w>"], ["to_", "id,</w>"], ["amount", "):</w>"], ["bal=bal", "-"], ["bal=bal-", "{amount}</w>"], ["id={", "from_"], ["id={from_", "id}\")</w>"], ["bal=bal", "+"], ["bal=bal+", "{amount}</w>"], ["id={", "to_"], ["id={to_", "id}\")</w>"], ["<|assistant|>", "cr"], ["<|assistant|>cr", "ítico"], ["<|assistant|>crítico", "s:</w>"], ["s", "ql</w>"], ["inje", "ction</w>"], ["(f", "-"], ["(f-", "stri"], ["(f-stri", "ng"], ["(f-string", ");</w>"], ["trans", "ação</w>"], ["a", "cid"], ["acid", ";</w>"], ["s", "al"], ["sal", "d"], ["sald", "o;</w>"], ["auth", "n"], ["authn", "/"], ["authn/", "auth"], ["authn/auth", "z"], ["authn/authz", ";</w>"], ["idempotency", ";</w>"], ["din", "hei"], ["dinhei", "ro"], ["dinheiro", ".</w>"], ["fi", "x"], ["fix", ":</w>"], ["para", "me"], ["parame", "teriz"], ["parameteriz", "e"], ["parameterize", "d</w>"], ["que", "ri"], ["queri", "es,</w>"], ["`", "b"], ["`b", "e"], ["`be", "gin"], ["`begin", "/"], ["`begin/", "com"], ["`begin/com", "mit"], ["`begin/commit", "`"], ["`begin/commit`", ",</w>"], ["deci", "m"], ["decim", "al,</w>"], ["mi", "d"], ["mid", "d"], ["midd", "le"], ["middle", "ware,</w>"], ["idempoten", "c"], ["idempotenc", "y</w>"], ["ke", "y.</w>"], ["<|user|>", "post"], ["<|user|>post", "-"], ["<|user|>post-", "m"], ["<|user|>post-m", "orte"], ["<|user|>post-morte", "m:</w>"], ["out", "ag"], ["outag", "e</w>"], ["4", "h</w>"], ["estrutura", ".</w>"], ["<|assistant|>", "timeline</w>"], ["ut", "c</w>"], ["(", "s"], ["(s", "la"], ["(sla", ",</w>"], ["cliente", "s)</w>"], ["ro", "o"], ["roo", "t</w>"], ["c", "a"], ["ca", "use</w>"], ["(", "5</w>"], ["wh", "y"], ["why", "s)</w>"], ["con", "tri"], ["contri", "bu"], ["contribu", "ting</w>"], ["factor", "s</w>"], ["wh", "at</w>"], ["w", "ent</w>"], ["we", "ll</w>"], ["ac", "tion</w>"], ["ite", "m"], ["item", "s</w>"], ["(", "own"], ["(own", "er"], ["(owner", ",</w>"], ["du", "e"], ["due", ")</w>"], ["bl", "am"], ["blam", "e"], ["blame", "less</w>"], ["c", "ul"], ["cul", "tu"], ["cultu", "re</w>"], ["mttr", "/"], ["mttr/", "mt"], ["mttr/mt", "b"], ["mttr/mtb", "f</w>"], ["at", "u"], ["atu", "a"], ["atua", "liz"], ["atualiz", "ad"], ["atualizad", "as.</w>"], ["<|user|>", "threat</w>"], ["mode", "lin"], ["modelin", "g</w>"], ["arquiv", "o"], ["arquivo", "s.</w>"], ["<|assistant|>", "s"], ["<|assistant|>s", "po"], ["<|assistant|>spo", "of"], ["<|assistant|>spoof", "ing:</w>"], ["for", "te</w>"], ["t", "am"], ["tam", "pe"], ["tampe", "ri"], ["tamperi", "ng"], ["tampering", ":</w>"], ["as", "si"], ["assi", "natura"], ["assinatura", "</w>"], ["h", "m"], ["hm", "ac"], ["hmac", "</w>"], ["arquiv", "o</w>"], ["re", "pu"], ["repu", "dia"], ["repudia", "tion:</w>"], ["inf", "o</w>"], ["dis", "clo"], ["disclo", "su"], ["disclosu", "re:</w>"], ["scan", "</w>"], ["m", "al"], ["mal", "ware,</w>"], ["di", "r</w>"], ["d", "os:</w>"], ["limit", ",</w>"], ["e", "le"], ["ele", "va"], ["eleva", "tion:</w>"], ["sand", "bo"], ["sandbo", "x"], ["sandbox", ",</w>"], ["exe", "c</w>"], ["ho", "st"], ["host", ".</w>"], ["<|user|>", "auditoria</w>"], ["microservi", "ço</w>"], ["car", "t"], ["cart", "ão</w>"], ["esc", "o"], ["esco", "po"], ["escopo", ".</w>"], ["<|assistant|>", "cde</w>"], ["bound", "ar"], ["boundar", "y</w>"], ["defin", "i"], ["defini", "tion</w>"], ["token", "ização</w>"], ["p", "an"], ["pan", "</w>"], ["1.", "2"], ["1.2", "+</w>"], ["ev", "er"], ["ever", "y"], ["every", "where</w>"], ["seg", "re"], ["segre", "gação</w>"], ["as", "v"], ["asv", "</w>"], ["scan", "s</w>"], ["re", "ten"], ["reten", "tion</w>"], ["me", "ses</w>"], ["ad", "m"], ["adm", "in</w>"], ["m", "an"], ["man", "ag"], ["manag", "ement</w>"], ["hs", "m"], ["hsm", ".</w>"], ["<|user|>", "solid"], ["<|user|>solid", "</w>"], ["leg", "ado</w>"], ["com", "e"], ["come", "ç"], ["começ", "ar"], ["começar", "?</w>"], ["cha", "ra"], ["chara", "c"], ["charac", "teriz"], ["characteriz", "a"], ["characteriza", "tion</w>"], ["test", "s;</w>"], ["extra", "ct</w>"], ["interfac", "e</w>"], ["pon", "to</w>"], ["ex", "te"], ["exte", "ns"], ["extens", "ã"], ["extensã", "o;</w>"], ["s", "r"], ["sr", "p:</w>"], ["se", "para"], ["separa", "r</w>"], ["i", "/"], ["i/", "o</w>"], ["re", "gra"], ["regra", "</w>"], ["negóci", "o;</w>"], ["di", "p:</w>"], ["a", "b"], ["ab", "stra"], ["abstra", "ções</w>"], ["n", "os</w>"], ["ho", "t</w>"], ["pa", "th"], ["path", "s;</w>"], ["módul", "os</w>"], ["mon", "ol"], ["monol", "ítico"], ["monolítico", "s.</w>"], ["bi", "g"], ["big", "-"], ["big-", "ban"], ["big-ban", "g</w>"], ["re", "write"], ["rewrite", ".</w>"], ["<|user|>", "pro"], ["<|user|>pro", "per"], ["<|user|>proper", "ty"], ["<|user|>property", "-"], ["<|user|>property-", "b"], ["<|user|>property-b", "a"], ["<|user|>property-ba", "se"], ["<|user|>property-base", "d</w>"], ["test", "ing</w>"], ["given", ",</w>"], ["strateg", "i"], ["strategi", "es</w>"], ["@", "given"], ["@given", "(st."], ["@given(st.", "li"], ["@given(st.li", "st"], ["@given(st.list", "s"], ["@given(st.lists", "(st."], ["@given(st.lists(st.", "integ"], ["@given(st.lists(st.integ", "er"], ["@given(st.lists(st.integer", "s"], ["@given(st.lists(st.integers", "()"], ["@given(st.lists(st.integers()", "))</w>"], ["test", "_"], ["test_", "s"], ["test_s", "ort"], ["test_sort", "_"], ["test_sort_", "idempoten"], ["test_sort_idempoten", "t"], ["test_sort_idempotent", "("], ["test_sort_idempotent(", "xs"], ["test_sort_idempotent(xs", "):</w>"], ["as", "ser"], ["asser", "t</w>"], ["sorted(", "sorted("], ["sorted(sorted(", "xs"], ["sorted(sorted(xs", "))</w>"], ["sorted(", "x"], ["sorted(x", "s)</w>"], ["sh", "ri"], ["shri", "nk"], ["shrink", "ing</w>"], ["autom", "átic"], ["automátic", "o.</w>"], ["`", "assum"], ["`assum", "e"], ["`assume", "()"], ["`assume()", "`</w>"], ["pr", "é"], ["pré", "-"], ["pré-", "con"], ["pré-con", "di"], ["pré-condi", "çõ"], ["pré-condiçõ", "es"], ["pré-condições", ".</w>"], ["program", "ação</w>"], ["<|user|>", "implemente</w>"], ["breaker", "</w>"], ["micro", "s"], ["micros", "servi"], ["microsservi", "ç"], ["microsserviç", "os</w>"], ["fal", "lback</w>"], ["métricas", ".</w>"], ["dataclas", "ses</w>"], ["dataclas", "s,</w>"], ["fiel", "d</w>"], ["typ", "ing</w>"], ["callable", ",</w>"], ["typev", "ar</w>"], ["typev", "ar"], ["typevar", "('"], ["typevar('", "t"], ["typevar('t", "')</w>"], ["state", "("], ["state(", "enu"], ["state(enu", "m"], ["state(enum", "):</w>"], ["'", "close"], ["'close", "d"], ["'closed", "'</w>"], ["'", "open'</w>"], ["'", "half_"], ["'half_", "open'</w>"], ["@", "dataclas"], ["@dataclas", "s</w>"], ["circu", "it"], ["circuit", "breaker"], ["circuitbreaker", ":</w>"], ["3", "0."], ["30.", "0</w>"], ["_", "failure"], ["_failure", "s:</w>"], ["field(default=", "0,</w>"], ["_", "sta"], ["_sta", "te:</w>"], ["field(default=", "state."], ["field(default=state.", "close"], ["field(default=state.close", "d,</w>"], ["_", "opened_"], ["_opened_", "at"], ["_opened_at", ":</w>"], ["field(default=", "0."], ["field(default=0.", "0,</w>"], ["cal", "l"], ["call", "(self"], ["call(self", ",</w>"], ["fn", ":</w>"], ["t", "],</w>"], ["fallback", ":</w>"], ["t", "]"], ["t]", ")</w>"], ["state.", "open"], ["state.open", ":</w>"], ["self.", "recovery_timeout:</w>"], ["state.", "half_open</w>"], ["e", "l"], ["el", "se"], ["else", ":</w>"], ["tr", "y:</w>"], ["fn", "()</w>"], ["self._on_", "success"], ["self._on_success", "()</w>"], ["ex", "cept</w>"], ["ex", "cep"], ["excep", "tion:</w>"], ["self._on_", "failure"], ["self._on_failure", "()</w>"], ["_on_", "success"], ["_on_success", "(self)</w>"], ["state.", "closed</w>"], ["_on_", "failure"], ["_on_failure", "(self)</w>"], ["+", "=</w>"], ["self.", "failure_threshold:</w>"], ["state.", "open</w>"], ["padr", "ã"], ["padrã", "o:</w>"], ["fail", "-f"], ["fail-f", "a"], ["fail-fa", "st"], ["fail-fast", ",</w>"], ["fal", "h"], ["falh", "as,</w>"], ["observa", "bilidade</w>"], ["cont", "adore"], ["contadore", "s</w>"], ["exp", "ort"], ["export", "áve"], ["exportáve", "i"], ["exportávei", "s.</w>"], ["system", "s</w>"], ["program", "m"], ["programm", "ing.</w>"], ["<|user|>", "worker</w>"], ["th", "read"], ["thread", "-"], ["thread-", "sa"], ["thread-sa", "f"], ["thread-saf", "e</w>"], ["can", "al</w>"], ["mpsc", "</w>"], ["gra", "ce"], ["grace", "ful</w>"], ["shutd", "own"], ["shutdown", ".</w>"], ["<|assistant|>", "use</w>"], ["`", "st"], ["`st", "d"], ["`std", "::syn"], ["`std::syn", "c"], ["`std::sync", "::"], ["`std::sync::", "mpsc"], ["`std::sync::mpsc", "`</w>"], ["`", "j"], ["`j", "o"], ["`jo", "in"], ["`join", "hand"], ["`joinhand", "le"], ["`joinhandle", "`"], ["`joinhandle`", ".</w>"], ["pro", "pa"], ["propa", "gu"], ["propagu", "e</w>"], ["`", "can"], ["`can", "cel"], ["`cancel", "la"], ["`cancella", "tion"], ["`cancellation", "token"], ["`cancellationtoken", "`</w>"], ["(", "to"], ["(to", "ki"], ["(toki", "o"], ["(tokio", "::syn"], ["(tokio::syn", "c</w>"], ["at", "om"], ["atom", "i"], ["atomi", "c</w>"], ["bo", "ol"], ["bool", ").</w>"], ["i", "g"], ["ig", "nor"], ["ignor", "e</w>"], ["`", "sen"], ["`sen", "d`</w>"], ["bound", "s.</w>"], ["limit", "e</w>"], ["fi", "la</w>"], ["backpressu", "re.</w>"], ["padr", "ão</w>"], ["ra", "i"], ["rai", "i</w>"], ["gu", "ard"], ["guard", "</w>"], ["si", "na"], ["sina", "liz"], ["sinaliz", "a</w>"], ["shutd", "own</w>"], ["d", "ro"], ["dro", "p</w>"], ["own", "er.</w>"], ["<|user|>", "exp"], ["<|user|>exp", "li"], ["<|user|>expli", "que</w>"], ["pagamento", "s.</w>"], ["<|assistant|>", "head"], ["<|assistant|>head", "er</w>"], ["`", "idempotency"], ["`idempotency", "-"], ["`idempotency-", "key"], ["`idempotency-key", "`</w>"], ["o", "pe"], ["ope", "ração</w>"], ["l", "ó"], ["ló", "gi"], ["lógi", "c"], ["lógic", "a.</w>"], ["ser", "vid"], ["servid", "or</w>"], ["per", "sist"], ["persist", "e</w>"], ["(", "key"], ["(key", ",</w>"], ["request", "_"], ["request_", "hash"], ["request_hash", ",</w>"], ["res", "pon"], ["respon", "se,</w>"], ["st", "at"], ["stat", "us"], ["status", ")</w>"], ["tt", "l"], ["ttl", ".</w>"], ["re", "pla"], ["repla", "y</w>"], ["ret", "or"], ["retor", "n"], ["retorn", "a</w>"], ["mes", "ma</w>"], ["re", "process"], ["reprocess", "ar"], ["reprocessar", ".</w>"], ["chav", "e</w>"], ["dev", "e</w>"], ["u", "u"], ["uu", "id"], ["uuid", "</w>"], ["v", "4</w>"], ["cliente", ".</w>"], ["gatewa", "y.</w>"], ["<|user|>", "como</w>"], ["n", "+"], ["n+", "1</w>"], ["que", "ries</w>"], ["or", "m</w>"], ["sac", "ri"], ["sacri", "fi"], ["sacrifi", "c"], ["sacrific", "ar</w>"], ["leg", "i"], ["legi", "bilidade"], ["legibilidade", "?</w>"], ["<|assistant|>", "senior</w>"], ["ap", "pro"], ["appro", "ach"], ["approach", ":</w>"], ["`", "se"], ["`se", "le"], ["`sele", "c"], ["`selec", "t"], ["`select", "_relate"], ["`select_relate", "d"], ["`select_related", "`"], ["`select_related`", "/"], ["`select_related`/", "`"], ["`select_related`/`", "pre"], ["`select_related`/`pre", "f"], ["`select_related`/`pref", "et"], ["`select_related`/`prefet", "ch"], ["`select_related`/`prefetch", "_relate"], ["`select_related`/`prefetch_relate", "d`</w>"], ["(", "d"], ["(d", "j"], ["(dj", "an"], ["(djan", "g"], ["(djang", "o)</w>"], ["e", "ag"], ["eag", "er</w>"], ["load", "ing</w>"], ["explícit", "o;</w>"], ["dat", "al"], ["datal", "o"], ["datalo", "ad"], ["dataload", "er</w>"], ["graph", "q"], ["graphq", "l"], ["graphql", ";</w>"], ["pro", "je"], ["proje", "ções</w>"], ["d", "to</w>"], ["ve", "z"], ["vez", "</w>"], ["en", "tid"], ["entid", "ad"], ["entidad", "es</w>"], ["compl", "et"], ["complet", "as"], ["completas", ";</w>"], ["qu", "er"], ["quer", "y</w>"], ["co", "un"], ["coun", "t</w>"], ["request", "</w>"], ["sta", "g"], ["stag", "ing.</w>"], ["la", "z"], ["laz", "y</w>"], ["lo", "op"], ["loop", "s.</w>"]], "max_length": 512, "tokenizer_type": "syon_bpe", "from_scratch": true}